/**
  ******************************************************************************
  * @file    network_data_params.c
  * @author  AST Embedded Analytics Research Platform
  * @date    Fri Sep  8 09:50:25 2023
  * @brief   AI Tool Automatic Code Generator for Embedded NN computing
  ******************************************************************************
  * Copyright (c) 2023 STMicroelectronics.
  * All rights reserved.
  *
  * This software is licensed under terms that can be found in the LICENSE file
  * in the root directory of this software component.
  * If no LICENSE file comes with this software, it is provided AS-IS.
  ******************************************************************************
  */

#include "network_data_params.h"


/**  Activations Section  ****************************************************/
ai_handle g_network_activations_table[1 + 2] = {
  AI_HANDLE_PTR(AI_MAGIC_MARKER),
  AI_HANDLE_PTR(NULL),
  AI_HANDLE_PTR(AI_MAGIC_MARKER),
};




/**  Weights Section  ********************************************************/
AI_ALIGNED(32)
const ai_u64 s_network_weights_array_u64[149192] = {
  0xbf7decacbec07930U, 0xbf8d0510bf599937U, 0xbf83cdf9bf8d9e30U, 0xbf350454bf8bc243U,
  0xbf64a778bf9725f8U, 0xbf7c6242bf8e3760U, 0xbf691434bd8f3c1eU, 0xbf6987c7bf762ee9U,
  0xbf64fc94bf622cabU, 0xbf2d9aa8bf9d8e5bU, 0xbe0aea7ebf5e57a5U, 0xbf8053cb3e01ad9eU,
  0xbf3e95dcbe5ee34bU, 0xbf87dd10bf56d553U, 0xbf66364bbf88b465U, 0xbf3bec00bf77aa11U,
  0xbf8f4abcbfac50eaU, 0xbf82bf0dbde123aaU, 0xbfaeaa4bbf9a1046U, 0xbf8ca1d1bf902a88U,
  0xbf7bbf66bf364adbU, 0xb9571000bee18df1U, 0xbf7aa7cebf85f583U, 0xbf8d15a33dd47940U,
  0xbfa1a083bf6d6617U, 0xbf88ccccbf39df84U, 0xbf78369abed14190U, 0xbf6e532c3e943450U,
  0xbf37624cbf57f8eaU, 0xbecbe7ccbf84b918U, 0xbf915d04bf3a83bfU, 0xbf48724dbf771783U,
  0xbc86cdf2bdaae8e1U, 0xbddb698fbdb93812U, 0x3c883bfdbd27fd80U, 0xbcb939773d89fb7cU,
  0xbc713015bd7550f3U, 0xbd80e778bdd796d5U, 0x3c30db753cdf9d77U, 0x3c8fcb45bd36a8c2U,
  0xbdd7607cbcfd2efcU, 0x3dc4b343bd903e12U, 0xbca7cc723d8899d8U, 0x3d168596bd32f6b3U,
  0xbd9ddf57bddec350U, 0xbc9de267bd19b15cU, 0x3e2a47a93c800c2cU, 0xbcfb452e3df90730U,
  0x3d19b22ebdb51a5eU, 0xbd0e4c04bc7f4a6cU, 0xbd1910833cb06a71U, 0x3e3d5c563e03ce22U,
  0x3b74b876bde38b4fU, 0xbd996e713d9b727aU, 0xbd2a2a90bc952c7fU, 0xbbc75428bd137cbaU,
  0xbdae7b573cae4b2cU, 0x3e0b5745bde8ba20U, 0xbd8b497cbdd84977U, 0xbd091cf6bb441b4aU,
  0x3de17b61bd7d3218U, 0x3cb7e2663d9e4b42U, 0xbd158995bd2427c9U, 0x3cdc901bbd94cd19U,
  0xbd2253abbd2c9625U, 0x3d08651b3d88621dU, 0xbc946f6cbceca8d3U, 0x3d6304773c892ffaU,
  0x3c5495123d1cedf0U, 0x3d8c74903dd318fcU, 0xbc1bda19bcc9fbbdU, 0x3dc3bda73bbee64bU,
  0x3d54e7623d1cf108U, 0xbda018fdbc5f3892U, 0x3dbe611cbd1937bcU, 0xbd428f9cbd57aeb9U,
  0x3d8ae43abc063475U, 0x3d64bad3bcaaf05dU, 0xbe0f76e23dc177f0U, 0x3dab58ff3bb8a30bU,
  0x3c77f2ac3c4e28caU, 0x3d18e3e23c27d4acU, 0xbd1d61113ddff7a2U, 0x3d60c6d6bd24ef56U,
  0xbe282e45bb56346bU, 0xbc96c4b03d36eeadU, 0x3b80e11dbc7c0817U, 0x3ce03cd6bd4db388U,
  0xbd7137a8bd8d7b1bU, 0xbd9535823d444a93U, 0xbaede2c53d739f56U, 0x3dd58b4cbdb66a89U,
  0xbd917013bc165641U, 0x3d860fcdbc5bfe54U, 0xbd03444a3d6c0ac7U, 0x3c94c6f63ca8a35cU,
  0x3d2f208abde5ffddU, 0x3d8cf6173d9e2829U, 0xbd43b2183c36674dU, 0x3b826ca0bd1a7cbcU,
  0xbcf3b325bcb73beaU, 0x3b8571913de44642U, 0xbca9f108bd1785e4U, 0x3d001fdd3e024d1cU,
  0x3d0947a4bcf03218U, 0xbe269fcabb119dd6U, 0x3da23d083be981a4U, 0x3d4f3ffebcb42a4bU,
  0x3d9bc8c93db35476U, 0xbcc7d4f6bd117c47U, 0xbd5317f33b2b3acbU, 0x3d6d72ff3da58122U,
  0xbd92a931bd2bf1b7U, 0xbc9d3fe5bd820798U, 0xbcef2fd8bd49bc87U, 0x3d87581fbcacaebbU,
  0xbd6e3cc3bd0d4a13U, 0xbd5f44d2bda7a6ddU, 0x3beb0bfdbd1790bbU, 0x3de16ac73d467e02U,
  0xbc667641bdfff893U, 0xbdb9553fbd6d6c27U, 0x3dccf2c2bcf952e5U, 0x3cb638dbbdad56c8U,
  0xbd425f4b3d8d7730U, 0x3ddd5987bd137b78U, 0xbc3e0b8dbce09adbU, 0xbd93e4b93d00ab99U,
  0xbcd0ed24bd0e8956U, 0xbdb4ff56bad16f7fU, 0x3d873632bdb9b5b4U, 0xbe19f36f3d808059U,
  0x3d2aaf373cd2eaf3U, 0xbe056527be017c5eU, 0x3ce64746ba776e85U, 0x3cad9ec8be0bd868U,
  0x3c2ebb3c3d1001cbU, 0x3db72535bccaf0f3U, 0xbc86b0d63d56d7b9U, 0xbcad621d3c5d135eU,
  0xbdc24f53bdbca231U, 0x3da5d9d93dcb45d9U, 0x3dea57a2bdd2305cU, 0x3c26f20fba739bccU,
  0xbd31ef073d98d536U, 0x3d2ae9953d79b914U, 0xbdb55199bd83add2U, 0x3d73f92d3d7c4267U,
  0x3daeef90bdf1674cU, 0xbc76df313cdcb39fU, 0xbdc041a03d92aae9U, 0xbe061c95bd781659U,
  0xbc4a285b3d4d9c8eU, 0x3e6e00183ce73ea3U, 0xbc50ff3ebcb61799U, 0xbdd044c3bdcb2ad5U,
  0x3d9e958cbdaa7c02U, 0x3ca756d73da86227U, 0xbd30bb4abd487d7bU, 0xbdbb65a5bd889b76U,
  0x3b8436fcbd937042U, 0xbd2a06ae3cf85abdU, 0x3d1dbfec3ad2d275U, 0x3c9b92bc3d9061f7U,
  0xbd96a9323d3a21e6U, 0xbbfdd183bccf98daU, 0xbd0442b3bd783b1dU, 0x3d4a857cbe063c50U,
  0xbdc8bd753d287706U, 0x3d5eea003cb35492U, 0x3d3c2b10bcb30564U, 0xbbb0fb51bda1fe32U,
  0x3bce834fbd05f8bbU, 0x3c86a524bd8a4644U, 0x3c7b83e33d8ba55dU, 0xbd0afacabd715fd6U,
  0x3ce3ed9b3cde9e25U, 0x3c76fee93ca7e625U, 0x3e00b0103d0f5d8eU, 0x3d83ff713d3ef475U,
  0x3c0f50fd3bbee8bcU, 0xbd2b89c43dfa925cU, 0x3d003813bc2e2ca2U, 0xbd9100ebbd53f864U,
  0xbe09185e3be5e1e5U, 0x3cebef763d963b6fU, 0xbc8414d2bd8bf4a7U, 0x3c980e363bda1a22U,
  0x3d14a1f3bc227e12U, 0x3c8c2b44bc2ca99dU, 0xbd1769d13c449fc6U, 0x3d3ca888bd4a6e96U,
  0x3d777dccbd2f7ea2U, 0xbcf417553d32d915U, 0xbd1fcc5e3d0b1bf3U, 0xbd9b750cbde76695U,
  0x3be93f4bbc91480dU, 0xbdc72c7abcb7e757U, 0xbdf795debc704a9dU, 0x3cc2d118bd9b4b47U,
  0xbd0c7c08bd417771U, 0xbc40f35a3d990c81U, 0xbc52427dbcee2e32U, 0xbca8974cbd4201f4U,
  0xbd7c1fdebc1979c9U, 0x3bf179d7bd509c2bU, 0xbcf326363c3f482dU, 0x3b91905bbb6e1db3U,
  0xbd9d45703d847de5U, 0xbb822e813cdeab4cU, 0xbce498da3cd8a194U, 0xbd19c276bde12cd5U,
  0xbcc2a3aa3cb0ac13U, 0xbdb80f5ebcb799c6U, 0x3d8524a3bb253d63U, 0xbc7e08e1bd14d5fcU,
  0xbd0067d4bd273e27U, 0xbdd88797bc23527fU, 0xbd7312f5bd493110U, 0x3d31d404bd88ef72U,
  0xbcf1d2d2bd907301U, 0xbd4411febdb09f53U, 0xbdd36cf3bda7d857U, 0xbd036f9cbda78399U,
  0xbd5b951cbd98663bU, 0x3d8428c13bda4899U, 0xbd8198b6be0f4bd4U, 0x3ca37d9ebc032cc4U,
  0x3ce983a73dd5d515U, 0xbd428da43d685c5aU, 0xbde303de3cd1ec0fU, 0x3b7530d1bdae5fe1U,
  0x3d055aaebdaed36fU, 0x3cb0f361bd0c8f43U, 0x3a91929abbbd54f3U, 0xbdb8b57ebd362cceU,
  0x3d0ad70abdbdcc84U, 0x3df1e73a3d9d5096U, 0x3d109b03be12179dU, 0x3b964982bd934576U,
  0xbdd246013d26f4f3U, 0x3d0219adbce45ea4U, 0xbdeec9e0be39aa08U, 0xbdbadf31bc1d997dU,
  0x3dec2410bdd5bd99U, 0xbc91ce5ebddc72fdU, 0xbdd2d6c63de75953U, 0xbc7a650ebd83071dU,
  0x3cab3d3bbad77d60U, 0xbd4a2605bd439b54U, 0x3d892a203d9926dcU, 0xbd8b8482bd4682adU,
  0xbb4f5b3abca668c2U, 0xbd3fed4a3bee7ddcU, 0xbdcbb2b4be05bfc3U, 0xbdf4bc483dbd0ddfU,
  0xbd36ff133c4d3fc3U, 0xbc9fa886bb5bb8cdU, 0x3c97f4cabd4a6f74U, 0x3d71fd6f3be16dbbU,
  0xbc82ca98bc8e55edU, 0x3bfabd81bc7d7d5bU, 0xbdb495f9bd3a571aU, 0xbcbe9eaf3c17df86U,
  0xbda0d5913d633a35U, 0x3cbd56a2bcea1b01U, 0xba5d0237bcd18e48U, 0xbc9ccc2c3cb8d0acU,
  0xbd13fb3bbc933a9cU, 0xbdacaa00be06d4efU, 0xbd41fff13da9f701U, 0xbdea61013d424a8cU,
  0x3c8eadd6bdaa44deU, 0xbdcbcd3dbdbc5086U, 0x3d9dfdc23daa3d4dU, 0x3cee85f33d395567U,
  0x3d86fd403d68dff6U, 0xbc2e996a3d0cb949U, 0x3d381112bde42fe3U, 0x3cb91175bd107dc6U,
  0xbcdfa8e43d073865U, 0xbc7fdf4bbd712e47U, 0xbdb0263ebd15a3ceU, 0xbd243354bbbf2ab8U,
  0xbcba163ebc49074dU, 0x3c8128503d90af0cU, 0xbd4592483cec7455U, 0x3b0a9615bcfd7c9aU,
  0x3cd34c8fbc4a9036U, 0x3dbc8b07bda81289U, 0xbda0166e3cf54e08U, 0x3d6bd6c4bc6756b0U,
  0xbdb4c95abd0da461U, 0x3d80c7d33bea1980U, 0xbca91244bd36bedaU, 0x3c430cf63d933d0bU,
  0x3d1bbd36bd40b13cU, 0xbdce19503c41cc9fU, 0x3c729a56bdcd7ef9U, 0xbd871100ba6f942fU,
  0x3c6b8ee7bd177fabU, 0xbb8f75fcbd2e80cbU, 0xbdaed8e13c9388e4U, 0x3bc1f2c73c5e5d91U,
  0xbd2a27ebbde72a61U, 0xbd4096c2bd58b69cU, 0x3d1f22253bd8a05cU, 0xbdb594b9be109d71U,
  0xbcaa475f3d33c0feU, 0xbba6aa0abe2b6975U, 0x3d8fa996bd453d50U, 0x3c85d68abdbf5f74U,
  0xbd5d62b9bdaa2445U, 0xbe26d8063c92ee73U, 0x3c3026d73bc2546aU, 0x3d3da4683d401adcU,
  0xbd8b9ae33c34b5f3U, 0x3d4df33ebd3a4093U, 0xbd8a16aa3de1d4caU, 0xbb8f5b2a3dbd8596U,
  0x3d85ec24bce7f5f5U, 0xbbe9eeefbd897decU, 0x3ce5b7b8bd1a9539U, 0x3c0493a6bd598d2cU,
  0xbd3ec7e53c8e2132U, 0xbc8c0415bdb42d33U, 0xbda30ee3bdef4eccU, 0x3ce62979bcc76534U,
  0xbcef3d06baed78b7U, 0xbd89ef9ebca6490aU, 0x3c01c9cc3c2562fcU, 0xbdad5e7a3c3a0326U,
  0xbd1632ffbd7b1cceU, 0xbd1a63d9393e29bcU, 0x3d28396c3c8615adU, 0xbd03a6f1bda8f9baU,
  0x3ce1b5453cf853b5U, 0xbd8aee04bdba9c7dU, 0x3d8714a83d0a130dU, 0xbd4605a4bd29dea2U,
  0xbdd20d743d40061bU, 0x3d44371c3bd0cc9aU, 0x3caf5f80bd3b608dU, 0xbd76a0e4bd37a420U,
  0xbcb62a3b3d9727cdU, 0xbdd2acd5bc8a4288U, 0xbd9dd78bbd699bccU, 0x3cbca72a3c891bfeU,
  0xbd7024603b6db924U, 0xbd3beccf3b92ac7cU, 0x3d7370243b89f9a8U, 0x3d750fc0bc9b85e2U,
  0x3dc4655fbca64ba1U, 0x3b85a4b8bd2b30aeU, 0xbcd66c2bbdafadb4U, 0x3d8f8f50bdd263a4U,
  0xbd9063f43cf6b70aU, 0x3d8dc0a93d082671U, 0xbd2cc354bc4dadddU, 0x3c86cf93bcad5d18U,
  0x3d79b79abd05e06eU, 0xbdb11296bcb7d4ddU, 0x3ccb067e3d53e450U, 0xbcfac0d13cdde01eU,
  0x3d0378dcbdb2effaU, 0xbd6ae46d3d4414a3U, 0x3b9f4c64bd1bc57cU, 0x3d5b3b26bd73102fU,
  0xbd60afe23bf3ffbfU, 0xbbf0f9663d2d9afcU, 0x3cb24e3e3d3331afU, 0xbc84c38c3ba725e2U,
  0xbc0a238ebcd64c78U, 0xbb3b54803cf5d046U, 0xbd04f22a3d4c5b27U, 0xbd05cba7bcd30394U,
  0x3da7f3323ca89d6fU, 0xbd8eaa99bdb3978eU, 0x3de054b63d0e7a56U, 0xbd95a6de3c77f9d2U,
  0xbd997964bd85d1aeU, 0x3da410f83c3e1099U, 0x3b2efcd23c7accb2U, 0x3d05d5f03b4d8445U,
  0x3db34e97bc32395eU, 0x3c2be6173cc0ddd7U, 0xbe03af62bc1c12ecU, 0x3cf72c72bde36984U,
  0x3d26fd053d6fe820U, 0x3a1ae3113db5dc3dU, 0xbe015988bd665e5cU, 0xbd852ee23d443c52U,
  0x3daba984bd6c7a2aU, 0xbcc5d63dbd004e45U, 0xbd166281bdfdb5c3U, 0xbda28cdb3b8b5d0eU,
  0xbba6505bbc778c98U, 0x3da383db3cc7f2f3U, 0xbcefc7203cae8ddcU, 0xbd7e2fb7bdcc9fc6U,
  0xbd3b675fbbeabc15U, 0x3e01f2dd3c9e5731U, 0xbdce6fb63d238be2U, 0xbd93c341be104063U,
  0xbc85fc173ca4be61U, 0x3c2731a3bdbd77d8U, 0xbd088d383d2ea9bdU, 0xbd16f09cbd8118cdU,
  0x3c7f3e553d56e79aU, 0xbe3b091d3d361f4aU, 0x3d6251cf3d30caf1U, 0xbd9ec8eeb9c130eeU,
  0xbddd897b3be59c4fU, 0x3d5c4ba7bdbfaa41U, 0x3cecff723d36a5c3U, 0xbd82ad7c3d35f810U,
  0x3d1844a1bd1d4ad5U, 0xbd58771bbcc07430U, 0xbc4718b5bbf3378dU, 0xbc8a8444bd17694dU,
  0xbd7ff884bd62c143U, 0xbdb1fce9bc069181U, 0x3bd649ecbe09b380U, 0xbd621c1dbd605031U,
  0xbbfc7b253d29718eU, 0xbd0083be3cd35385U, 0xbc84f0733b2e0897U, 0xbc3c68523cc589a4U,
  0xbc95d167bcf16cf7U, 0xbd8505cfbb46c332U, 0xbd42f04b3d944ef9U, 0xbd6d9fe2bda189d7U,
  0xbcdf4121bd42407eU, 0xbb7379f5bd82b197U, 0x3dfc7d393d50c3d9U, 0xbd7de0a73c7dc800U,
  0xbd78cf543cb3e0e2U, 0xbd569870bd9722e3U, 0x3d81c7cb3b67bb4aU, 0xbd5f8ec6bd1f297aU,
  0xbd0f48f23d060752U, 0x3c670d66bd82c311U, 0xbda0eb8c3bffd56dU, 0xbd488cb5bd12d7deU,
  0xbd5d8aebbdbccdc3U, 0xbd0192453d3b7fe0U, 0xbcd7b1433c94ccb8U, 0xbd1aac213a49fb94U,
  0xbc86c51bbc380862U, 0xbc3324a9bdafef87U, 0xbcdbe7babddd42e4U, 0x3c2d37f5bd027f9bU,
  0x38e444eebd001c5bU, 0x3cc87b95bd2c8412U, 0xbc29119fbdf1c4c4U, 0xbda317683c5ab11aU,
  0xbd8bbed4bdaad7efU, 0xbd9f9cb7bdb9483aU, 0xbdacf1463c8c70b7U, 0xbd84573bbc043df6U,
  0xbd18df09bdad87e0U, 0xbdee78f1bdab61a1U, 0xbd39f98fbdb7aec0U, 0xbd67017cbc8f0ec2U,
  0x3c9d72d9be160582U, 0xbd30a1adbc35da3aU, 0xbd5dca22bdac1d8fU, 0xbd487c78bb8caf38U,
  0x3d05be37bcc83c60U, 0x3ce0a5043d12b659U, 0x3b1c4f3cbdc79ce5U, 0xbd50ace5bd3e7cd6U,
  0xbd0c8ad6bd789c24U, 0x3c6fb44abd14a2a2U, 0xbdd44278bd0f102cU, 0xbcb40df2bd17e9abU,
  0xbd274486bcc694e9U, 0x3ca0b9b6bd91b9c3U, 0x3ca7d8fc3a8f2bf1U, 0x3c614b56bdbd1ab1U,
  0xbd609e1cbd0e37d0U, 0xbda5affabd05de47U, 0xbe0f1ad3bd5a8f73U, 0xbb4618e8bce258caU,
  0x3cddf2433d712481U, 0xbd037ce6bd757618U, 0xbd072f51bd7ee6adU, 0xbdae42203c0e9753U,
  0x3a0ceb2fbe004120U, 0xbdaa6733bdd8b10eU, 0xbcccffc5b9be6711U, 0xbc76acac3cbd0e4cU,
  0xbcc64b6abdbd8a4eU, 0xbc709380bd5a8278U, 0xbd29505ebddc3bafU, 0xbc550cbbbd6b5698U,
  0xbd1e09c13c9ceb44U, 0x3d161adebdb81d68U, 0xbd92c624bc08a4bbU, 0xbdea13d6bd8317eaU,
  0xbddecb02bc55e997U, 0xbe10f972bdb70d3dU, 0x3cacd4df3ca8e665U, 0xbcad33efbe3851ebU,
  0x3c061200bd01f5ceU, 0xbe08a2133db1ac53U, 0xbce8f06dbd29c5abU, 0xbc9891e5bd96c6a6U,
  0xbc353b3dbd89d8ddU, 0x3bb68eedbd93eda4U, 0xbd8955423d63ef47U, 0xbc45bf9bbc8d798cU,
  0x3d87a81f3ccc2397U, 0xbdabb1263ceb851fU, 0x3d909f203e2cf790U, 0x3b7d30a33e2dcca0U,
  0xbba472aabdc6ca28U, 0xbd1dc9e43d030e52U, 0x3c9080f6bd9820ecU, 0x3dcceed0bcdb41d0U,
  0xbda66ff33e4cef5bU, 0x3d39e2f53db76897U, 0xbcf76c603da9f0e1U, 0x3d77d4a2bd5ad650U,
  0xbd424d013dfbe833U, 0xbb8bd403ba2db883U, 0x3d9caf703e1d3ae3U, 0x3c81c89d3ca40258U,
  0x3db157bc3aa0fcfaU, 0xbd05adcf3d81effaU, 0x3defb10f3c9ea679U, 0x3d36ad9b3d9f9096U,
  0x3db6aa273ce1eaaeU, 0xbdaeece73dbb1f94U, 0x3e2a89233a22c38dU, 0xbd635ec63da7db92U,
  0x3d84b93a3d8e238aU, 0x3d926aa1bd449ebaU, 0xbd7a8751bdc5c8e6U, 0x3dc5831d3cc9e724U,
  0x3dc91a3bbdad950cU, 0x3d27c1673e008477U, 0x3d0d25d7bd5a68a1U, 0x3d844e4bbdd3d511U,
  0x3c09f982bc332055U, 0xbdb91e3cbd82a69bU, 0x3d0dbc7c3cb03bffU, 0x3c1f3ee8bd101ad1U,
  0xbdb2813cbde59eb6U, 0xbd6a6568bd111d4bU, 0xbb1add2abd8cafc8U, 0xbc2dd9603cd4da88U,
  0xbcef15e5bc8e1daeU, 0xbc901b6e3cc8c4e4U, 0xbdd29a5a3dbdf830U, 0x3d42c923bc23e137U,
  0x3c7eab5bbd91f7f8U, 0xbdff5712bd45ddc6U, 0x3b8a34273d865779U, 0xbd918a9cbd5f0a94U,
  0x3d4754cebe0f96ebU, 0xbd8c41f2bd657f2cU, 0x3c241cc53d84797eU, 0x3daa520a3d162885U,
  0xbe1ac7d8bcbe34e3U, 0xbba5e2703cc7468eU, 0x3ba98783be04038aU, 0xbd8cd490bc944cd1U,
  0xbdd259b1be277e74U, 0x3d6322c3be433284U, 0xbd5d8921bb1101beU, 0xbc967b3fbbe30154U,
  0x3d050feabd8ffe38U, 0x3bc92cb33d912346U, 0xbd3554eebc84baebU, 0x3ddef4a5bd42f16aU,
  0xbc9b70c5bd9eb23cU, 0xbd86b02ebd8f964dU, 0xbd2e3186bd1aae87U, 0xbdce2037bda5d993U,
  0xbce7011b3cc8344cU, 0xbdb88c59bbfe4e48U, 0xbb4a32c3bd917656U, 0xbd0cda413c95497dU,
  0xbc05c167bd152cd3U, 0xbc1348c8bdfda735U, 0xbd4ff740bcdcf50aU, 0x3da3fb6ebccb2d4eU,
  0xbc571bd9bce2df58U, 0xbc9d65d7bcaf1f86U, 0xbd21eb75bd6612b5U, 0xbcc39d5a3d1efe12U,
  0x3c711011bd74dc81U, 0x3d7d827bbdfb3cb0U, 0xbd4339023c01ab75U, 0x3aef8d22bd60af43U,
  0x3b2e08263c6a88ffU, 0xbd67ade33c3a19e5U, 0xbb01f452bddca43cU, 0xbd225923bdbe6886U,
  0x3c4bb7a5be2612caU, 0xbd09ce833d956105U, 0xbc1898a0bd2aab32U, 0xbd933d6c3cb2645bU,
  0xbd1c15c03d7c5e0dU, 0x3d495418bdd2f02cU, 0xbc5490debb5899f6U, 0xbd0ace063d8b8b91U,
  0x3d7780d5bb7913e8U, 0x3d3d010dbd680c01U, 0x3c9d8b403d1ec3ebU, 0x3d0925b73ce6b58bU,
  0xbb88e5e5bd9c5a85U, 0x3d1c1681bb8c3075U, 0xbd4447613cecdc98U, 0x3c350f703cbd99d0U,
  0x3dbc4dac3d366bafU, 0x3da50a9fbcf199b3U, 0x3d0e39d63cb618d6U, 0xbcbaa9b4bd6cffbbU,
  0x3c477c5c3d0b5b79U, 0x3c2caba63d5115a4U, 0x3d366aa93d54fc4dU, 0xb95d118ebd04a479U,
  0x3cd65f8cbb36c933U, 0xbd26d121bc672d45U, 0x3c2f88fa3ccddb60U, 0x3dbe88c23cea72a1U,
  0x3b97f165bc925f25U, 0xbc491ed93deef497U, 0x3d91ff0f3cf378f0U, 0x3d4d5767bd1c9ef0U,
  0x3c81dd89bd9b1b3eU, 0x3c384e90bda34738U, 0x3d4abc7dbd3a8cedU, 0xbd4d369ebd849f78U,
  0xbcc0b02ebc60c929U, 0x3d11ac973d237014U, 0xbc3c9130bcc2c2d8U, 0xbd1053b53d8310a5U,
  0xbd9a8b82bda4f66fU, 0x3c18965bbe20eb6fU, 0xbcf52b52be0f0d25U, 0xbcdaf289bce0ca12U,
  0xbdd0746ebdd7c882U, 0xbd83e517bca35458U, 0x3c696f43bbdb50ffU, 0xbd15e6943ccf4922U,
  0xbd5cd3713d0a27a1U, 0xbcb6b6a4bd067e14U, 0xbda03aa73cad7cefU, 0xbc406eb3bc1ea2b7U,
  0xbcc49635be2c8628U, 0xbe070c03be3055afU, 0xbd505aa0bd10179cU, 0xbd824eabbde2d2faU,
  0xbba48b1bbe029771U, 0xbe2d64babd7e4658U, 0x3d189a33bd6d69d5U, 0x3d978e3abb9b6c41U,
  0xbdd4212dbdc99398U, 0xbdc861333cf8b165U, 0xbda7aca6be2414c4U, 0x3d80deeabdd99953U,
  0xbd9562c8bcc01f5fU, 0x3ce5ccbdbe039adbU, 0xbd818194be24a668U, 0xbe06e32dbda26676U,
  0xbd7198abbd53cd4fU, 0x3dbbbdc13ceea78bU, 0xbdbca01abdcf74a9U, 0x3ce854a2bda8e16eU,
  0xbcc5c7ac3dc0e887U, 0xbd673dca3c8b151aU, 0x3b6201c8bca2aeb5U, 0x3befa883bd9136e6U,
  0xb9d3ddf23d1e111fU, 0xba7a500fbd369695U, 0xbd2b5fbb3d24ba41U, 0x3dd44df6bdc29aa8U,
  0xbcd169403c731e3fU, 0x3d4e45973d4c62a3U, 0xbd1eb367bc1e7f7cU, 0xbdfd1a17bd92935cU,
  0xbc59f793bd09b7b6U, 0x3d4e54703cd56bdaU, 0x3d8355803e176090U, 0x3da3ed64bccb5fb9U,
  0xbd4f4d993d9d2195U, 0xbd5c4d30bde838f7U, 0x3d5cdd3ebd964158U, 0x3d382493bd80535cU,
  0x3dc322a83cfc1f5bU, 0xbd87bdd3bd98c17eU, 0xbcd0ac513d925f78U, 0xbd58e0a7bd470c69U,
  0x3c3d38403e01b6d0U, 0x3d06435b3e3ebfa0U, 0x3c9586acbd030366U, 0x3cafb1b63ba984c9U,
  0x3d05ebacbd09a02fU, 0x3cc7de303d4bc065U, 0x3d0472eb3ca200efU, 0xbd0815dfbc786260U,
  0x3d0be5b2bd8fbadcU, 0xbca9b166bc81377aU, 0x3d025b773d2dfdfeU, 0xbcd997cb3d009b16U,
  0xbca7fc35bdaecbb3U, 0xbc25ceb03cc7b113U, 0xbba7b2dfbda0b883U, 0xbce40e48bc27c872U,
  0x3d0793df3bbdaaedU, 0x3d96bffe3d803c4eU, 0xbcc4cd543cc77bc0U, 0x3dd8c0fdbbc30e34U,
  0xbc3db17c3d86c08bU, 0xbd81ed5bbd74a09dU, 0x3daf12bf3d26d32dU, 0xb7b9aec239abc72bU,
  0xbd06637ebd21af51U, 0xbd8647f43d8709cfU, 0xbd42236cbb6846a8U, 0x3d9ed1783d3ac323U,
  0x3c916fbdbd093c5cU, 0xbcea68313c99f708U, 0x3bde9cebbc24df1fU, 0x3d6ea3993be68fd9U,
  0x3d38728e3c136cadU, 0x3d4a45383bfbc288U, 0x3c6339883d143abcU, 0xbceffa57bc848e16U,
  0xbd185f623c88164eU, 0x3e0865c6bc9a052eU, 0x3d00bc9bbcf604ecU, 0xbd3ddadc3ccf3aa6U,
  0xbd71dd95be066f72U, 0xbe09aec3be33896bU, 0x3ce481d2bdf5dbbfU, 0xbd965c58bd9dce97U,
  0xbd836fb1bcb434eeU, 0xbc0f3617bd79c4d6U, 0x3d76a391bc371543U, 0x3c51bb5f3b8862c6U,
  0xbd998a10bd96ddadU, 0xbb82f496bdb80b47U, 0xbdab6ac9bcbd18bdU, 0x3d8ef367bcb99876U,
  0xbcbf98d2be0cba9bU, 0xbc857cd3bdb9f6b8U, 0xbdc8324ebdaab30aU, 0xbde677d93cb8d011U,
  0x3cbe3870bdaf1cc6U, 0xbd0d28cfbd5376fdU, 0xbe0337e0bda664a0U, 0x3d8f24283c848189U,
  0xbe0c5c10bd3e7944U, 0xbce54c6e3d0ea62aU, 0xbd3c8804bd833014U, 0xbd5e6715bda1d09eU,
  0xbe2e6a7fbd1eea52U, 0x3d849ae1bd6a5b97U, 0xbd94c487bd37338fU, 0xbdb17426bd900960U,
  0xbc707236bd33351bU, 0x3db4dcc5bd8d8b5aU, 0xbd850a223dab3277U, 0xbcee5132bd3ab291U,
  0x3d9e4b7c3dce10f2U, 0x3d2903453c82d9a4U, 0xbdf9a312bcfdb794U, 0x3d0ed658bdc08a77U,
  0x3cf7e5a93e0fd8b7U, 0x3ab24862bcdd3f01U, 0xbdc55e623a11c6adU, 0xbc964f7cbde6431bU,
  0x3d0c01c73c90c168U, 0x3cf2a7143dcdf577U, 0xbdc094e13cd6fc95U, 0xbded6399bd0c3a21U,
  0xbcdce60ebdc1d703U, 0x3e13cb4a3da0754bU, 0x3d04bbde3cf3510cU, 0x3dcc6233bccca69dU,
  0xbd9637d73db64c10U, 0x3c1d6e45bd7f2596U, 0xbd24f50b3d41c280U, 0xbbcc2266bda20738U,
  0x3d92c17cbc6c646aU, 0xba61455fbdb753b1U, 0x3d88b8383e170e19U, 0xbde1d794bd8e1178U,
  0x3e3c80f13d801ba9U, 0x3d1b91b53e0eb9f8U, 0xbc3de9c8bd10d78bU, 0x3df2059abd62606dU,
  0xbd001f5dbe04977bU, 0x3ced3bd8bd894aa1U, 0xbd943ee2bd6f7645U, 0xbe07c6e0bda23a24U,
  0x3cf40316bcdf632bU, 0xbd9e7dc2bcfb62c8U, 0xbdadacdfbd0a0925U, 0xbce92439bd83e0d6U,
  0xbd565928bdc6145eU, 0xbd1232843da3d9ffU, 0xbc9e309bbd960c59U, 0xbdc982133cca81d5U,
  0xbbbe0f62bcea1bc2U, 0x3d081f0abcc74434U, 0xbd8c61743cfa92c8U, 0x3d90e40bbbebf403U,
  0x3d89ba25bdbf5001U, 0xbe2285d9bc47021dU, 0x3d613931bd981977U, 0xbd1a74aa3d39bd4dU,
  0xbd09b380bd702837U, 0xbda958203d8ef628U, 0xbd571b163d614360U, 0x3da8ef243c5ad6c3U,
  0x3db4d981bd8030b6U, 0xbd4683e1bd8227afU, 0x3bf20798bd51d12bU, 0x3cd28e7cbd35d985U,
  0xbc966d35bc228716U, 0x3d802f75bd7dd13bU, 0xbd2e12dc3c4b4d53U, 0xbd30082dbde195acU,
  0xbe03a8073d40ff82U, 0x3de8a0033cbef8fcU, 0x3da983b1bdbc5da6U, 0xbda1205e3c28ef90U,
  0xbdcdd1b0bd335de3U, 0xbd9cb418bd088ea4U, 0xbd2a8f3bbe213cc4U, 0xbc4d3fa6be062709U,
  0x3cbe08053d2c709aU, 0xbc7226bebd713ec5U, 0x3d9d6e46bd411862U, 0x3d647b97bdeac591U,
  0xbdf61177bdb831b0U, 0xbda44c51bda677f5U, 0xbaf57498bdf10bb5U, 0x3d41265dbcaf14a7U,
  0xbdce77e5bbd78647U, 0x3cedffbebd9c8bfaU, 0xbe11e87abccf6fc5U, 0x3c5a8143bdf22517U,
  0x3da6b9f8bcff010eU, 0x3d1422a7bd8b3090U, 0xbdecb81ebd9f2d6aU, 0x3d67d2cd3d6c76c2U,
  0xbdd7fca03d129a90U, 0xbd3a75173d244a94U, 0xbd2df7b83d0b12d7U, 0xbdb9ba4abe0085b0U,
  0xbe189299bd18331eU, 0x3d5deb003d6796e1U, 0xbdfef7e7bd111e9dU, 0x3c25ae93bd2f7821U,
  0xbd934db2bcbe7824U, 0x3d5956b0bdc9468eU, 0xbc080d463dc8c726U, 0x3ca9b61bbdf10cadU,
  0xbb8dd4803d7c12b2U, 0x3bdbb1a539c98cf4U, 0xbe225e88bb14fec8U, 0x3d81258ebe2871d9U,
  0x3c97e5993db95ed7U, 0xbdc4ec02bd808f32U, 0xbdac3f143bc7ebc7U, 0x3d4a3fe2bd828966U,
  0xbd7ee6ae3c777afaU, 0xbb37b57a3da62162U, 0xbd58a4a53cd74be3U, 0xbe21e8e3bda8a73eU,
  0xbdc41f59bda18c44U, 0x3d88b4f73e5f68b1U, 0x3da614c33d12e754U, 0x3e02b9e6bd2a5234U,
  0xbda63e193e57b538U, 0x3d13f3e0bda9d653U, 0xbd886f5e3cb8e30fU, 0xbd0fd919bd7dadd0U,
  0x3da522e93c8fb439U, 0x3cd0df7bbdc00531U, 0x3e28366a3e3b1039U, 0xbdc475f4bc9ad80bU,
  0x3e4fda91bd884b3dU, 0xbd481c0c3e0d7cf0U, 0xbcb408c0bccb9702U, 0x3df74312bda45f83U,
  0xbc935dbebd22a67fU, 0x3d0c4ec3bdbb41faU, 0xbd63fe0cbe04da1bU, 0xbd5b9429bda715cbU,
  0xbcf2cd21bce1d64bU, 0xbd8ee705bd6c771aU, 0x3c65dad8bce06dedU, 0xbc963eaf3d1c84b6U,
  0xbd445dafbd1fd62fU, 0xbd6e57cdbdc469faU, 0xbd49df90bd558b26U, 0xbcd80e7fbd7e84bfU,
  0xbd7fe3133d7e19a5U, 0x3d0973a6bd361f55U, 0xbd8047b13c0a91daU, 0xbdbdd8bb3aa16556U,
  0xbde9b2a9bdb1f8a2U, 0xbdcfa66ebdb48b9bU, 0xbc03c19a3dd23c1dU, 0xbd2194f8be0e4e6aU,
  0x3d0e1f88bc39d686U, 0xbda57070bc4ff745U, 0x3d4bd6273c4b3daaU, 0xbd8034ab3b6f00a8U,
  0xbe0f48e2bae4bc27U, 0xbd6c288e3e022536U, 0x3ca74c9bbd8473e9U, 0xbd8675c5bdc8ecf5U,
  0xbd3fc8e1bd24d540U, 0x3d90233dbb5389acU, 0xbdb5bb92bdb7b6b4U, 0xbdfa495a3d9200ddU,
  0xbcbd203fbe3f804eU, 0xbd11ec3e3d5267e5U, 0xbc09e911bc959eceU, 0x3dba44f3bdd49a09U,
  0x3c77d3a7bd9da8c2U, 0xbd8ac269bd17e1d1U, 0xba7adb083d322e53U, 0xbd94da243cb1783eU,
  0xbd7ee837bd97414cU, 0xbd366983bdc22688U, 0x3b36bbd8bdcdf598U, 0xbd0d7240bd8d25acU,
  0xbe0b1cbd3a137108U, 0xbdb2dde23d611edeU, 0x3cdb24c4bd1c541cU, 0xbc90895b3d327950U,
  0xbde03d41bd99537bU, 0xbd826bca3cf2413eU, 0x3dcbfbcbbd43fd81U, 0xbca45c5c3c1fffddU,
  0xbcf9246cbd7725eeU, 0xbdc1087fbd8fe3a4U, 0xbbdd584cbd4ae3feU, 0xbca8dd15bd8e2277U,
  0xbde7ef30bd0bacdbU, 0xbc9614043cdf257aU, 0x3d61d7cebd0d94e8U, 0xbd48c311bddd85a0U,
  0xbc23d5debd230236U, 0xb99a1027bda281fbU, 0xbdbd27d8bd620c4eU, 0xbc21a6cb3ccedcc8U,
  0x3ce06f4bbe08ccedU, 0xbdc76373bd1a785eU, 0xbdee638abd90bf87U, 0xbba1ba51bdf55010U,
  0xbe26a1673da19d92U, 0xbe1d67cb3db48249U, 0x3d15ccef3c4d11dbU, 0xbd7b35983c76cbd4U,
  0x3da7af663daf346eU, 0x3cbffc6cbe1d6be6U, 0x3c3c54623b05680dU, 0x3cf96ba0be35e37fU,
  0xbe2c1826bc82540bU, 0xbc6de00d3d7b1e3dU, 0x3d10377abc9e1ce2U, 0xbc2b8d4b3d752ad4U,
  0xbdf635db3caf0c20U, 0x3d2bf1fbbcbe01d0U, 0xbcd73a843d46881cU, 0x3dbb2947bd12ed75U,
  0x3dcaff403d9c6482U, 0x3d7c74d1bd5bda98U, 0xbd7f80b5be020c09U, 0xbc86a65fbb76c9c8U,
  0xbe2335833c6da4f6U, 0xba90876c3db98b2aU, 0xbc8864d03d27c252U, 0xbcb642d03ba8b1acU,
  0x3d1933f73d85fddfU, 0x3d3217363dfdba02U, 0xbe5051e9bd9204e9U, 0x3d9f641bbc498812U,
  0x3d26e2c5be437688U, 0xbd5c4929bc0dfa69U, 0x3df79a9f3dff8b99U, 0xbcd72d39be24a1aaU,
  0x3c5036f43d326992U, 0x3cf63dd1be2ccdabU, 0xbd219e46bd9810a6U, 0xbd3bccb5bd30cdbbU,
  0xbc2425d6bcd8d11dU, 0xbd52fcb13dde6552U, 0x3ce236183c1e8295U, 0xbdb7d7543d2af80cU,
  0x3d0beb6ebc308da5U, 0x3ddf21d0bd2e733dU, 0xbbc02ee5bcd39a31U, 0xbc29c7f1bd9d546fU,
  0x3d99451dbd59cb9cU, 0x3d03608cbd2782d7U, 0xbd0cac5cbdf01a34U, 0xbdfde8d83d293e97U,
  0xbd532eecbdc080d2U, 0xbbde4fb7bb674bf1U, 0xbdb2ef12be0fd693U, 0x3c906a1f3d142eeaU,
  0x3e3195a4bdaa35deU, 0xbd9c9ba6bdbc0c1cU, 0xbdd60995bd8f2229U, 0x3d5697d03d6511d5U,
  0xbce8c6e93d767ceaU, 0x3bc057fbbcca097fU, 0x3da29fc03dbbd637U, 0xbdbf92efbd625594U,
  0xbcdba056bd3f30a1U, 0x3c1094e7bd7dde4bU, 0xbc8c1da7bc4b8f5dU, 0xbd8aaf563de58a2dU,
  0x3d5987f2bca4a53fU, 0x3ca6cca3bdb7a808U, 0xbc4d28763c93e60dU, 0xba9f474bbd1f30fbU,
  0xbd399342bdddd7a2U, 0x3d6cb7693e017deeU, 0x3ce78ca4bde35233U, 0xbd3325acbb216313U,
  0x3d4b0cd03d454fedU, 0x3d952974bd3d059cU, 0xbd3ffb433d4c9f00U, 0xbbf03628bcfd74aaU,
  0x3de820a6bd40d75fU, 0xbd7b6eb43cd6c1b6U, 0x3b9a72823c9a15afU, 0xbda9a7d03dc996b5U,
  0xbdba7704bcef20f2U, 0xbd8857f1bcda9af6U, 0xbe12aea2bd7a8863U, 0xbc850623bddf4fd9U,
  0x3e061aacbd13626aU, 0x3cc4a079bc9e99bcU, 0xbd84f40cbd29860dU, 0x3930d0a03d621cb4U,
  0xbd4e4e243c1f16aeU, 0xbd554661bde93a93U, 0x3d95fb7d3d85ddb9U, 0xbd7aadfdbd398375U,
  0x3c76f6103d2ca11eU, 0xbd54a7dcbd84418eU, 0xbc74bd31bdeec149U, 0xbdd39e5d3e18ad59U,
  0x3d8773983c995f49U, 0xbdf3634c3b9b4c65U, 0xbdf8426cbca69ec3U, 0xbddc4e70bdb3780bU,
  0x3d4b7f29bd1aaf78U, 0x3c27c76fbda75735U, 0x3d5cc1aebd9d385cU, 0xbdcca928bdc085f7U,
  0xbdfb3642bd84f40dU, 0xbd2e7075bd7a087bU, 0xbdc748ee3cb77101U, 0xbbe986c6bca6c7ffU,
  0xbdc9cb0b3bdf1145U, 0xbcccc20dbd6feddaU, 0xbd3f2ad9bdc191d7U, 0xbc0bdff7bd811660U,
  0xbda53e053caa70f9U, 0xbdb3186dbd9a8311U, 0xbe1fd4a03c332f39U, 0x3ba001d6bce8a2aeU,
  0xbb1c7ef1bda5ce82U, 0xbd12e794bdd3b004U, 0x3d22aef2bc71b9f3U, 0xbbc9c42f3d4352d2U,
  0x3cb9e0853cdd95edU, 0xbd93620ebd494943U, 0xbe2d0d8b3c09a7f3U, 0xbd9be564bde21006U,
  0xbcae7231bd987c96U, 0xbddd05b0bd8f6a98U, 0x3cbeca79bcbaddcbU, 0xbdbaeaefbdb0cd09U,
  0xbbebd624bd310d5cU, 0x3e29cc9a3c06db66U, 0x3c2993cabd0d201cU, 0x3e268d36bd84f6d9U,
  0xbae842983d55bc23U, 0x3ddd80593e04517dU, 0x3bc1fc38bd125d4cU, 0x3d448f9e3de65416U,
  0x3d75b5c93d473bedU, 0xbd6306e23d2822e1U, 0xbd0c349d3d92cb91U, 0x3d1ccd6c3bb391afU,
  0x3df1596e3cc65aeaU, 0xbd9022dd3d9f1c93U, 0x3c713367bcc1343bU, 0xbd0b59043c8e9c8cU,
  0x3c99b4eabd4d81a7U, 0x3db8fd48bc66ca87U, 0x3e66c214bcb4641cU, 0xbcfd7527bc866f58U,
  0xbd9f237c3da3fea6U, 0x3d0f1d883da23da7U, 0x3d19fccabd5e07bdU, 0x3e24c7653d351e7bU,
  0xbc4b3285bd75a74bU, 0x3b5affd7bd2b61bbU, 0x3e30990d3d66ac70U, 0x3d278c343dcf1056U,
  0xbd8cf1d33dc15082U, 0xbd1860edbcd843dbU, 0xbd74f16d3da2cb3aU, 0x3d6e3e113e19354fU,
  0xbdcb76a83bd7f7f5U, 0x3dde27e83e082cccU, 0xbcda68f3bd2fbe32U, 0x3e21e6583c886fbcU,
  0x3cd454033d01a7aaU, 0x3e0dfbc03cb5793dU, 0xbd3b5ca3bdadf698U, 0x3dd90be53e0ab09bU,
  0x3e01c6793d3156d8U, 0xbd1a234b3d6831b9U, 0xbd04004abce2cfcfU, 0xbcb621283cd1aee8U,
  0x3dee685fbb1b16d5U, 0x3c98fa983d819e53U, 0x3d484820bcb86be7U, 0xbcb3a3323cb7fb80U,
  0x3d408995bc8dd4f6U, 0x3e2f0e59bd6c64b2U, 0x3e00b9b13d45fc9cU, 0x3d293e45bdd6a554U,
  0x3c9cbec13d4bd0f8U, 0xbc8751ab3cf961c9U, 0xbd2c0f083ceb2cd0U, 0x3e57ffec3c912d9cU,
  0xba907001ba527711U, 0xbdf9981b3e027431U, 0x3dd48f793c9f0226U, 0x3d260828baeafd0dU,
  0x3ccc54573ddadd41U, 0xbdd392353c6d7d0eU, 0x3d8fd62e3d975266U, 0x3dc762b83da9fca8U,
  0x3ce2af53bd5e5d2aU, 0x3cefcdde3d7fc75dU, 0xbd833be8bb638e19U, 0xbcda8fd4bda6f920U,
  0x3d919bf53d96ba0cU, 0xbd708b36bd0c88c3U, 0x3d43fe59bdcbcd2dU, 0xbd393b74bd8bfdc5U,
  0x3d308c48bd2bcab1U, 0xbdbdd215bd1d2864U, 0xbd1be2013e0c4799U, 0xbae23433bc60586aU,
  0xbd92f654bdc6900aU, 0x3dabd2403e3bfa1eU, 0x3de70b40bd69a231U, 0x3c4a2da3bb675882U,
  0xbd8e243b3dc0f5e5U, 0x3d88ec19bc943a64U, 0xbd597a743d9f6c9dU, 0x3ae1ca553daa33b3U,
  0xbc5e36433bb53eccU, 0x3c2cc9e4bd2efc87U, 0xbd5692d93e1e7381U, 0x3d7dadfd3b29070bU,
  0x3dfbee72bd10c009U, 0x3d664ddf3c551c10U, 0xbc39f2ecbd236b62U, 0xbc864457bd2946adU,
  0x3d05ab263cbfd896U, 0xbce1f3ea3cda5d2fU, 0xbcbd8b86bb50be49U, 0xbd713500bd5d7296U,
  0x3d53b28a3d6ac294U, 0x3cb2718dbdc92a04U, 0x3cb9286dbb4a23c1U, 0xbd838909bd62217fU,
  0xbc22b8d8bc947fbeU, 0xbd20abeb3af535daU, 0x3dcf18c93d03a80fU, 0x3cb10b503d15f2b0U,
  0x3b6a9b223c50bed7U, 0x3d59acd7bd223b59U, 0xbbef459d3b580e7eU, 0x3e0de31fbd075bfcU,
  0xbd52eccdbce85100U, 0xbd6417b7bcf5aa80U, 0xbcb2c59fbcfa23aaU, 0x3bf1892f3d8dc8c3U,
  0x3d81dfc6bd078833U, 0xbd8ed129be031f74U, 0xbe0876293d18bb6aU, 0x3b61cf2b3d9fb9deU,
  0xbccf2cd73c866ecbU, 0xbdb199ab3c90c7beU, 0xbd5047573d0e3397U, 0x3d584e70bd9ae079U,
  0xbce443a03d9cc550U, 0xbb9add663bab3671U, 0xbd9367d6bc5f49faU, 0x3b1db374bd6e6b2cU,
  0x3c81fc863d66fdc9U, 0x3db93fcbbd3c9272U, 0x3dd0a290bd83ccd7U, 0xbd6fa0da3c9832edU,
  0xbd09fbb2bd53f189U, 0xbc97283dbd14a719U, 0xbdb969d93ca929b7U, 0xbca46d62bd6c7195U,
  0xbd0322e83cc6f679U, 0xbe4004e4be067e16U, 0xbdd462eebda2ad21U, 0xbcd39490bdcdd0fbU,
  0x3c2cace2bcf14134U, 0x3d46bac8bd6c8051U, 0x3c4adf4e3d0fb7d6U, 0xbc414187bd3549ebU,
  0xbcacc3cbbd8e94f6U, 0xbcc9f001bd4a7ca4U, 0xbd6df76b3c5e7194U, 0xbccddc2cbdcbfddaU,
  0xbe25c98dbd34625aU, 0xbdb550c1bb6835b7U, 0xbe13ceb3bccae262U, 0xbd8aaaa9bccb689bU,
  0xbc9dd3e0bde77357U, 0xbcbed546bc90e41aU, 0x3d27dc123cf9a3aeU, 0xbd44f22c3d00b07dU,
  0x3d7e4c17bd92d858U, 0xbdfccfe03cb2a312U, 0x3b84e8223cf1565aU, 0xbc3ab9613ccd03b3U,
  0xbdbabc72bdd5f14bU, 0x3d5cc21bbdb3bb7eU, 0xbd9443bebdc51f45U, 0xbd1a243dbcf9fdd1U,
  0xbc81193bbd189724U, 0xbde2c21fbcb15c0cU, 0xbd4622d9bd1ce564U, 0xbb6a399fbd9646fbU,
  0xbdbf451ebdb367c5U, 0xbd63e3c5bd875102U, 0x3d12adaabd08fe8fU, 0xbdc93268bd052909U,
  0xbdaf804bbcc4c3b5U, 0x3d8f35dbbd89156dU, 0xbc83718cbd7efc5fU, 0xbd38143abd15b955U,
  0x3c1244c1bd65fa3eU, 0x3c9fe47ebd6cbeb0U, 0xbc65a045bc7da8d2U, 0x3adadbadbcef73feU,
  0xbd185d6ebd778f5dU, 0xbd823b3cbd0fb65cU, 0xbd956096bd00cb90U, 0xbd1b6e35bce036b1U,
  0xbcbf583ebb0918e9U, 0xbe03fefabd21309cU, 0xbd4de9f43a4cf5baU, 0xbd1e40a3bcfcc8f4U,
  0xbd82a113bd91f72fU, 0xbb0109b5bd032e6bU, 0xbd6baea63d24a61dU, 0xbd7aad1fbd8432fdU,
  0x3cf0753fbd95d108U, 0xbbfcf673bcc4336fU, 0xbc1b08a53b0bca22U, 0xbc9361ddbc757a36U,
  0x3d0ef449bcc0c11dU, 0x3d6b194ebda1e6e3U, 0x3c020db5bcff9ccfU, 0xbda1f2d83c188a17U,
  0xbdb1d4463d479e01U, 0xbd8ef7e8bcdb88a7U, 0x3dd348353c4363abU, 0xbda9f3063c568f16U,
  0x3d25318bbd318447U, 0xbc88f264bd5dc2d2U, 0xbcffae55bc55a2caU, 0x3da14836bda0185fU,
  0x3d19fea7bd9d796cU, 0x3c1ef801bd1e4596U, 0xbd6f89bdbd25b4c0U, 0x3d0c4bb5bd22b29cU,
  0xbb8bd403bd9f29eaU, 0xbd5f4d30bd0bc975U, 0xbe2ec736bd17f6bdU, 0x3de63f963d9168e5U,
  0x3d52da7abdda310fU, 0xbdcc2d423d68c7b1U, 0xbc9bba32bd10e667U, 0x3d258cca3d21e7a1U,
  0xbd8aa7a2bd3667f3U, 0xbd45354bbd1b5904U, 0xbd0475a83d774aebU, 0xbd0b2f7dbda53c19U,
  0xbd4762253d2f4a12U, 0x3cb23ad6bb1efec6U, 0x3da5b9de3c887229U, 0xbcd886ecbc779ccfU,
  0x3d670c5abd9d49e2U, 0xbbef813fbcfb9e92U, 0xbd8c48dcbd9a51fbU, 0x3ca9f35a3d0296c9U,
  0xbdeca8663c99dd6aU, 0xbc34fdcf3d49a7b2U, 0xbb888acebd912635U, 0x3d81d1e33b1f35a6U,
  0x3d54ea0ebbe53171U, 0x3ad9e7c4bdf3e8b3U, 0x3dc48419bdce4b94U, 0x3cbfa9c6bd827048U,
  0x3da24ba83c4bcaedU, 0x3d4c345bbdaa0bf7U, 0x3c65f1573be69a59U, 0xbd18443fbd420ad9U,
  0xbc91b870bd559121U, 0xbde46d453c92bb57U, 0xbe034ae7bc9938b8U, 0x3dc03024bc21a8c6U,
  0x3c662c8bbe29711cU, 0x3c9c5f54bd20a618U, 0xbdbfbfd3bccd349bU, 0xbc8318213cdf7620U,
  0x3d8adc59bd8086d1U, 0xbc98f811bd81950bU, 0x3d5b94673db251c3U, 0x3bc4c698bdb06004U,
  0xbd2feb793c203275U, 0x3da2a914bddabfceU, 0x3a791c3dbdac90d7U, 0xbdbb13873bf94e73U,
  0xbdc6c81dbdc6a0b9U, 0xbaf1af5ebcd6a021U, 0xbd9560cebdb4ac83U, 0xbd42f34c3c899cf7U,
  0xbd95552d3c5e126aU, 0x3d610955bda0985eU, 0x3cf8a3d0bd2fd0c5U, 0x3b4b174e3bb5b7c7U,
  0x3d1d5f80bd725783U, 0x3d3ac9a03bcc9c16U, 0x3df36033bb90053dU, 0x3d519d26bd9680aeU,
  0xbcb91d67bd5ac42fU, 0xb9738e6d3c067b74U, 0x3d13a410bdaf5e09U, 0xbdc927683c6ae23dU,
  0x3d8b8f96bd3aa7b3U, 0x3d25010fbd62c1d6U, 0x3c44dd18bd85d26eU, 0x3d3dab47bc9a3871U,
  0xbc8ee07cbca16834U, 0x3c96e65b3c6af0eeU, 0xbcba2fd9bcdecf51U, 0x3d162492bd0880b9U,
  0xbdd658d9bc525141U, 0xbd01e2763bf21a08U, 0xbd16944bbc8babcaU, 0xbac7ab89bc570452U,
  0xbd0a6351bcc9cd5aU, 0x3d7661a2bda42a52U, 0x3d32e5dd3db8e43aU, 0x3d13acadbcea9281U,
  0xbdc5aa823d22649eU, 0xbc6dcd6d3d95d90aU, 0xbd5f13413b23ae24U, 0x3d5202383c36e22eU,
  0x3d6281de3d164d20U, 0x3cb095dd3d83bed3U, 0x3bba6340bcafddf8U, 0x3c4760f63c5a61c8U,
  0x3beea728bbb6e70aU, 0xbe0162d5bc9c47c8U, 0x3d001b3fbd6e40abU, 0xbc98d5d9bca44462U,
  0x3c96d2743c1cc604U, 0x3d8c3cc7bd0e6f39U, 0x3c9989503dab54d0U, 0xb8b09a5e38340a04U,
  0x3d8c4c69bd34c81bU, 0xbd6db3d5bc974054U, 0xbcc408dfbd4e5c59U, 0x3c1bcba6bd8ea54dU,
  0x3cebbb0d3bdec8b6U, 0xbccbdb05bbd8767aU, 0xbd89749db9da25c1U, 0xbbad96c83d30988cU,
  0xbd5f77793dc588f0U, 0xbd64addd3bad7fa5U, 0xbd41ca59bca5ca08U, 0xba11dfc0bd473664U,
  0xbd1b34e83c2434d2U, 0x3c68c3bebd025999U, 0x3d1f0e4ebd5bfb93U, 0xbd71f8933cd79bf8U,
  0x3d2e54b63c0913bfU, 0xbc1641093dbad92dU, 0xbd1940c03d9f4994U, 0x3c496f203db24810U,
  0x3db170cb3cb9028fU, 0xbd683036bd50cdd1U, 0xbdd137a6bdb4031eU, 0x3e23546cbdb7f006U,
  0x3d281d0d3d83b910U, 0xbd485fe03dfed146U, 0x3e059dc7bdf5384eU, 0xbe0967ae3aa16416U,
  0x3c9b9a3e3d88f4d7U, 0x3d994b45bd177257U, 0xbd16017c3dcfe27fU, 0x3cde49f2be085ed3U,
  0xbcab76d03d7f5f46U, 0xbcdcb2543ca4cdaeU, 0x3bf9bb1ebd11bbd9U, 0xbc085a5ebdd50672U,
  0xbc6b0340bba4e966U, 0xbd899d803d783d87U, 0x3d96311c3cb029b3U, 0xbc1850053d151011U,
  0x37802eb13dfd5fdeU, 0xbd8d3a083c92f9e7U, 0xbbd75658bb36a054U, 0x3c878d62bd88a223U,
  0x3d6ba511bdde18a7U, 0x3d93b7a63d398c73U, 0xbd1c834dbd8bfe6cU, 0xbdf53e693d0c598bU,
  0xbd36f4203da271bbU, 0xbd4fda713db9e011U, 0x3d193dc73df95bf6U, 0xbd4898943dcd968bU,
  0xbc364b74bc12a944U, 0x3d81cc7fbd8f383bU, 0xbd8fc88e3d5a6da1U, 0x3dcf26bcbe0a1004U,
  0x3cedda693dcfb4ddU, 0x3dd88be83e1d3f96U, 0x3dfff4943cbfe3f2U, 0xbcf24cf6bc46f66bU,
  0xbbface913d01924cU, 0xbbd3b95d3cf3e1e8U, 0xbb3e29f03db84d71U, 0x3ce57399bd16bd9aU,
  0xbb3a9de73d1212c6U, 0x3cbee6773d4ae315U, 0x3d99c44a3cbf2fb6U, 0x3d7d8513bcf482bbU,
  0xbd19b4623d93a270U, 0xbd918b043d05ff72U, 0x3d9d81ca3d4c2506U, 0xbd70a2bf3caa1346U,
  0x3d95bbc23d8cc64eU, 0x3d9dd3f73d850234U, 0xbe17b109bd631900U, 0x3da6553f3d6fe49dU,
  0x3deba198bdba0428U, 0x3d2003493de65036U, 0xbc265d633dad0199U, 0x3d8c0f72bcfde738U,
  0x3d2e48d9bdd63395U, 0xbcf5e5943c0bba0dU, 0xbd95be81bce60ff6U, 0xbc42b5d5be000310U,
  0xbd8556493cedff16U, 0x3cede248bd634ca6U, 0x3d7c59b5bd7dcf9bU, 0xbde41469bda2408bU,
  0x3d51c9aabd99b136U, 0xbd5a5fdabcea1195U, 0xbd0e5093bda7c223U, 0x3c8dd4d33d7a14caU,
  0x3c9c2964bdc7c379U, 0x399825dabbcf1740U, 0xbe2d455dbcc2da8aU, 0x3cc53b55bd010610U,
  0xbd8fbdf03dcac9eaU, 0xbd07d6b2bc1516f3U, 0xbce8de6dbc841898U, 0xbda02297bdc93486U,
  0xbb9d91953c81ad9aU, 0xbcfddd07bdc376d3U, 0xbbc715993d990d9bU, 0xbc4a49b2be3d97ecU,
  0x3c034fa7be1cdf95U, 0xbdeeda413d55a299U, 0x3c8e21553d0ec763U, 0x3c9813a03d1ad906U,
  0xbdc2cd2fbd9248b9U, 0xbd78cb80bd9ddda8U, 0xbd0b32823d0f0884U, 0xbd9b63c7bccae5f2U,
  0xbd695d6bbcd8e88aU, 0xbd0f570cbdb116a7U, 0xbd428cbdbe3dae3fU, 0xbd1eda05be0f7e0dU,
  0x3c9c2b3bbc4fcd1dU, 0xbe22b3c5be0cbddfU, 0x3c66eec1bc34dcf2U, 0xbdff4db4be051001U,
  0xbcab6840be27537aU, 0xbca4bfd0bdb10e2eU, 0xbd7826fc3cf84282U, 0x3cadc67abc023bccU,
  0xbe4f2b8bbe0eef21U, 0xbda788483b8561c0U, 0x3dad0ee7be490786U, 0xbcb5acc0bdb2f365U,
  0xbd4c33bc3d855071U, 0xbc88b19fbc5e5d8bU, 0xbe0cef7cbe26218eU, 0xbd41b01e3d45e322U,
  0xbce84d21bdeebb93U, 0x3d1ce617bd8fc5a0U, 0xbd9d05633c5bcf57U, 0x3b04edeabdc2dafaU,
  0xbd0aa250bd192b5fU, 0x3dde5a81bcbdbac4U, 0xbdf15b5fbdce6d62U, 0xbd590e913c5a343aU,
  0xbe003cefbdca3a39U, 0xbd9d1d7dbd4ca55bU, 0xbc9c9adebd3d9a16U, 0xbdc587eebda4edb0U,
  0xbdf76881bc8c357fU, 0xbe0ed3c3bd39cd21U, 0x3e1bc4d5bdec9407U, 0xbc6f34f03c821945U,
  0xbd179d9abc7b2b8fU, 0x3d475654bcd76f74U, 0x3deb8779bce41722U, 0x3c4d65363cfe80c0U,
  0xbd812307bdc22894U, 0xbcf4beeebdfa6ce0U, 0xbdcf8628bdd0f04dU, 0x3d8e29de3dcc5f1cU,
  0xbdc97384bd422870U, 0x3c22c2f8bc343d3dU, 0xbd83806bbd2ee948U, 0xbce1e4febd2f5a4aU,
  0x3e2c1688bc26fd5aU, 0xbbbd2ca2bdd09745U, 0x3c14fb44bc874aaeU, 0xbc0f4b963d2aa49aU,
  0xbd9481843d8b5773U, 0xbe1253653cbdac69U, 0xbe145afcbd011673U, 0x3d8a315fbcb574efU,
  0xbe04e3c8bd0a08bbU, 0x3c8e27f7ba5043e4U, 0xbe0af1bfbd8e9af8U, 0xbde5c63e3ccd3b66U,
  0xbbe05d5dbb9aaa65U, 0xbcfc14eb3d0c00d3U, 0x3d6e331b3ddca3efU, 0x3de43c8dbd3bc6adU,
  0x3cbfec6fbd5e6f2cU, 0xbc678dfa3ce5dc24U, 0xbd84aa92bd04f194U, 0xbb4a0367bd3afeb6U,
  0xbd716cdd3df0fd56U, 0xbd3c0ba4bd8249d8U, 0xbc6b32533cad9a37U, 0xbd2418f2bd179daaU,
  0x3cb3c9623c5ab944U, 0xbd4b884c3b8ea530U, 0xbd97c511bb97658bU, 0xbd793d5c3bfe6733U,
  0x3d05a7bbbd628306U, 0x3d8de2bebcfc8614U, 0xbd6952253d7e2502U, 0x3d403e7dbdd018ccU,
  0xbddb7d773cd5ca2fU, 0xbc61afe4bd475d9dU, 0xbd8cf6a73d3ceab0U, 0xbcfa02f8bd07d34dU,
  0xbdda50193da549f9U, 0xbdf1904abd6e7024U, 0x3b4a7f353c546150U, 0xbd69cae4bd1603c8U,
  0x3b13c056bde5a30cU, 0xbd099d173d99c1d0U, 0x3d100700bd38ac84U, 0x3c80f5153d25b2f2U,
  0xbd1b23c9bd90dcfcU, 0xbc18b86b3cd55698U, 0xbdb9a09c3c8d6be5U, 0x3d0ca0a33cb4aaf5U,
  0x3c8a8da4bc384587U, 0x3a6feae1bd9b2d62U, 0xbafcc919bd5c5930U, 0xbd115464bdcdffadU,
  0x3d498494bd8c7989U, 0xbe3a701abd596506U, 0xbc9b113cbcdd96a7U, 0xbdb088cebdb96fedU,
  0x3cbb7f92bd709ebeU, 0xbc2407463da3678bU, 0xbd9f8137ba650220U, 0xbdbaace4bcdd2f48U,
  0xbdc926ecbda12fb9U, 0xbc1a6a9b3d83865aU, 0x3dd4ae59bdaf5be0U, 0xbd3734c6bd1f6066U,
  0xbe0753023d2f90c2U, 0xbc8c032c3ca629e7U, 0xbe49dddabdaf3e9eU, 0xbd58d3e8bd06e346U,
  0xbd21fd81be15f4eaU, 0xbd3b432abdbdc3a2U, 0x3d4714113d01ac85U, 0xbddac64b3dee9fb3U,
  0x3dcfda50bd5120d1U, 0x3d96fdebbd5be24fU, 0xbc74ea7f3d4f9770U, 0xbd898c9abd4c46faU,
  0xbd28679cbce12633U, 0x3b9ec4a63ccff04eU, 0xbd2d89fdbd8a5e91U, 0xbda6806dbda7c29bU,
  0xbe1cc9d43d145e28U, 0xbdc9d714bd992f55U, 0x3dcd8748bd85d272U, 0x3c877aeb3d06f361U,
  0xbca93ee7bd4fdc27U, 0x3d300ef9bdc6533dU, 0x3e47a465bd7888abU, 0x3d5de5cf3cf24c01U,
  0xbda6d0943d701530U, 0x3c15d47d3b0d8ed6U, 0xbd9543eabb99c5e1U, 0x3dd145193cb61121U,
  0xbd25570cbd8564d4U, 0x3cb329db3d3167f8U, 0xbdb8123a3d8c99eeU, 0xbd01f297bbe51cb4U,
  0x3e5e1b8fbcec7053U, 0xbc81b851bd80926aU, 0x3c9d1538bda055d5U, 0x3d8d71f93dd248b1U,
  0xbdd718f43deaafdcU, 0xbd639a9c3e0f1809U, 0xbdb0a5ebbc98cc65U, 0x3d1ea3ee3e0d555fU,
  0xbd9640903cfa12d8U, 0x3ceb108a3d801509U, 0xbd0b3aebbd9bf3b9U, 0xbdbd2b993d45beebU,
  0x3d8dd8443c564673U, 0xbd77f55f3dd7a9cdU, 0x3dc4cea83e1a99a9U, 0x3e18bb45bd36d14bU,
  0x3d4fc71b3d22f1cbU, 0x3d426aab3bf8b76bU, 0xbd238d01bbb4ed19U, 0x3d7203763d571f62U,
  0xbdb0a7e33d8a9e84U, 0xbdbad76d3ce9ca59U, 0xbce38d633d8d355fU, 0xbd42aa803cb316c0U,
  0x3cb94c183d87d70fU, 0xbc4dbb513cea253eU, 0x3d53d2afbd56af5cU, 0xbce5c1933db0f34dU,
  0x3da4d18fbd83e90eU, 0x3cdfa6adbc1cabc1U, 0xbd8a1e383d02a79cU, 0xbd3e0fa1bde67399U,
  0x3c3926cfbd8b262dU, 0x3ba94e7dbd73110eU, 0xbd4ed3e73da423edU, 0xbe05b4c6be093201U,
  0x3dd019f23d10a32bU, 0xbda481e0bd76aae6U, 0x3d31c0ec3aeabcf4U, 0xbd881352bd9bd4d6U,
  0xbda05ea1bdc87319U, 0xbdebed33bc509870U, 0x3d914a8a3caca5e2U, 0xbc831a413dd58b66U,
  0xbc9939a83dcd350bU, 0x3d814f7bbd375f66U, 0xbccedd95bdd88a98U, 0xbc7fb9ce3de0f029U,
  0x3d9b48c4bd93f502U, 0x3da4e550bd09b97aU, 0x3c64f41a3c1907c7U, 0xbcd5c10b3b1e1281U,
  0x3da8eac93d02d1a3U, 0xbd89db9b3d88ecccU, 0xbde0be5fbc90e04dU, 0xbda77b3bbd22c8eaU,
  0x3dc763313ba2eee7U, 0xbcc1bbcebd9f91d8U, 0xbcafb82a3d50fc98U, 0xbdb05a48bc0d5445U,
  0x3da405d6bdbb5027U, 0x3add815d3de65405U, 0x3d8b412cbd0b0707U, 0xbd2a03f4bd67b5d4U,
  0xbdb51e2fbb2d730cU, 0x3cec2151bc5e09beU, 0xbd3ab75fbd3f6badU, 0xbd8f751bbc0040e1U,
  0x3d987b19bd04b78bU, 0x3d55cb3fbd9cddc5U, 0x3c05744f3b68d037U, 0xbc9dd29bbc272adcU,
  0x3d80ce99bbd96e16U, 0xbdb02bcdbd0004bdU, 0x3d87ab923d577d72U, 0xbd432fcb3d606769U,
  0x3c302f45bc1b8909U, 0xbd82c52cbd309d30U, 0xbd3a529ebe0163bfU, 0xbcdda9ff3c4662b6U,
  0xbdb27f00bd211cd4U, 0xbd152dcd3d296639U, 0x3df21f323cfb63f1U, 0x3d7363623e089f9bU,
  0xbc4697133d0b1f0bU, 0x3d9ef23d3c88f658U, 0x3d162dadbd9a7059U, 0x3e078cee3c82c79fU,
  0xbcaec3f33e30660bU, 0xbdb0f0be3d7cd452U, 0x3da3e8d1bd13fadfU, 0x3cc6cef2ba363656U,
  0xbd81bc383ced29d1U, 0x3c43bc743c71f0b0U, 0xbcc27ab03da5ac69U, 0x3cdbd6ddbd0e85f5U,
  0x3e25e4003b8163a7U, 0x3d8856c53d0b79f3U, 0x3ddb30ad3d4869a6U, 0xbcbfe4a83d6a3865U,
  0x3d2092433e20b5daU, 0xbd8d605f3e233785U, 0x3dcc1565bca65ccfU, 0xbd51505f3dd96f8fU,
  0x3d0212d03e4d1207U, 0xbcba06f83ded038eU, 0xbd40e4d0bd45c6a0U, 0x3da9cad43ad1a0b5U,
  0x3d407da2bd862f44U, 0xbd71ae003c337580U, 0x3db4d2b9baf2535dU, 0x3e193db7bd0aaddeU,
  0xbdd93db93d73f468U, 0xbe36e771bd9afd28U, 0x3dcc62153da7bbb2U, 0xbe3262f93da3f1c0U,
  0xbc0cb8c6be0d20b3U, 0x3c9e95aabdeb9486U, 0x3d1b10fa3d208e6fU, 0x3ca04a52bda856a9U,
  0xbd846df83d42b818U, 0x3de19c6bbb0dedfcU, 0xbccc10963d06a07eU, 0xbd22d99f3c5b7a8aU,
  0xbe1bf7c7bd8b7164U, 0xbdcdb40abd4b6102U, 0x3b8b8d103dc9f869U, 0xbb9cf4e5bd9d715fU,
  0x3e2e6e60be112d6cU, 0xbe572e373d62ffceU, 0xbd26dfb5be255067U, 0x3c8994e63d9bda9eU,
  0x3e4d9d6a3d8e87a1U, 0x3c883a903db54c77U, 0xbc858c03bc7b2b44U, 0x3cbd73fabd341e45U,
  0xbd54a0a73daa0938U, 0x3d0e0fd4bd1436bdU, 0xbe056080bd28d606U, 0x3ca8e7d43d2b6758U,
  0x3da025febdf05559U, 0xbcd7336a3dddef4aU, 0x3e2a921dbddf083aU, 0xbc158dd2bcb7a7beU,
  0x3d7bcb7fbc3bc4b6U, 0xbd123b4cbd63d72bU, 0xbca227ee3d8b9f26U, 0xbbbf0206bba90d4eU,
  0xbdb03a2d3c00a4cbU, 0xbd74a004be3b80c2U, 0xbdd86ac2be087bf1U, 0x3c5ff440bd68687bU,
  0xbd33d1b63cb7253bU, 0xbe02457dbcbcc6b0U, 0xbce44c8d3d6c0054U, 0xbd1845563d66ee2aU,
  0xbb8741e2bc9c1ccfU, 0xbdf68761be39e721U, 0xbd936f433bd03b05U, 0xbe24ce01bdc37462U,
  0xbc945ddbbe039421U, 0xbd5187e1bd0b2604U, 0x3c9732fc3e195e31U, 0xbd29d959bd41f0f7U,
  0xbe31aa6e3c078090U, 0xbd3b8fe43d2b8786U, 0x3cf7b012be59236dU, 0xbd946bc0bb992a6fU,
  0xbdcb782bbd7ebf52U, 0xbce8d54fbd43722cU, 0xbbb6a562bd630aadU, 0xbd1b1dbcbdb9d183U,
  0xbcf47bafbd5b1974U, 0x3c3069a43c0cf0faU, 0xbe3e6f1b3dd556b9U, 0x3d8b0f99bdf2a2e8U,
  0x3d65aa47bda4623aU, 0x3df7c6d7bc972f19U, 0xbdc5d2d4be1cc342U, 0x3df60e13bdf3d08fU,
  0xbd0863943daa0de3U, 0xbc58492a3d7e6c56U, 0xbdcab04dbd859edeU, 0xbdb4d4723d7e3ba8U,
  0x3da8c488be1a845cU, 0xbd9487adbe0aaeacU, 0xbc8ff451bd966e8aU, 0xbdcc5236bcc2c252U,
  0x3e2f7874bd24742dU, 0x3d552f8e3c703b97U, 0x3b96006abde1bb3cU, 0x3c5317413d01e950U,
  0xbe25f0d4bc8ca49aU, 0x3d76012ebd2836d9U, 0xbd17fdab3dc77d9dU, 0xbd8acca6be0ba22fU,
  0xbc722298bdfe6041U, 0xbc8cbc53be0915b5U, 0xbc32600a3c90766fU, 0x3c459c373d1c45c7U,
  0x3ccefbdbbe57fa9cU, 0xbe230795bd47845bU, 0x3e26f8c53c3bd995U, 0xbdc57db2bd76433aU,
  0xbd6280163e1ec4b9U, 0x3e0aeebebe0a9027U, 0xbda08f393da96866U, 0xbd87269f3e280247U,
  0x3c813793bd1525a4U, 0x3d90198e3c5bd79aU, 0xbe3a93a2bdfa4c01U, 0xbd500eb3bd4fe10aU,
  0xbdc09bb338c686c1U, 0xbd79aec53d8a5f96U, 0xbd3fab66bd828f9eU, 0xbdcc5cfa3c87895fU,
  0x3df2bc61bdfe1e94U, 0x3c4895a5bd8fc7b5U, 0xbd40dc8cbe4abf8bU, 0x3bc3cfb5bb8552e4U,
  0x3ddc9277bdb75b5bU, 0x3d9fe1a13d8b7318U, 0xbd5dcaf7be24ef40U, 0x3d245696bdf97df7U,
  0xbdb4afbf3ca49e69U, 0xbcf0cf14bd93d3e0U, 0xbdc86b37bdfd517cU, 0xbdf0134ebe1314c6U,
  0x3d41cd7abda5fb1eU, 0xbd1a82efbe1f2430U, 0xbd2c69e03dc8c276U, 0x3c63ba0bbd113dc3U,
  0x3d3e1edcbc917266U, 0xbe520cf6bdda3f1cU, 0x3cef79bd3db537dcU, 0xbcc1916b3d82bed3U,
  0xbda623c13ca44224U, 0x3b33c245be08e555U, 0xbd181ad3bdb47f0fU, 0xbe2e736e3da6aa0dU,
  0xbda05ee33d929520U, 0xbd0d02aebdaf496aU, 0x3dbb0e69bd9a40ddU, 0xbe0305d73d134a5fU,
  0xbd2bf954bdcfa5c2U, 0x3cffda0dbce11099U, 0x3c8f9064bd536f8bU, 0x39176ad9be02dde6U,
  0xbd89740a3d1621b1U, 0x3c840a2ebc508f8fU, 0xbcf579003d7cc897U, 0xbd72fd083d8cb0f5U,
  0xbd650d86bd4269b5U, 0xbcc4d66cbaa40ed7U, 0x3db3c2bfbc30b52bU, 0xbe0d826dbd729fb0U,
  0x3c79d033bdf96186U, 0xbdf65cd8bc446d25U, 0xbcb9f57dbe16c3b4U, 0xbd34ef803d87771dU,
  0x3d29432fbe04807aU, 0xbd80d470bc2b330aU, 0xbd19c201be120271U, 0xbdbce169bd837f76U,
  0xbe0947803d553c42U, 0x3dae6a25bdb35318U, 0xbdc0e613bd8ff691U, 0xbdb1a7f13d0a702fU,
  0x3c2b346fbde3325eU, 0xbc85802c3cf6b06cU, 0xbc37c4dabe291cd4U, 0xbdb7cf49be09ef4fU,
  0xbd16af80bc9923fbU, 0x3d0cd3dd3cef8f9bU, 0x3d7f1c6c3b27ec0fU, 0x3da8eac73be90c41U,
  0xbd8c008e3c353e24U, 0x3cff0c56bdc55203U, 0xbd3fdfbebd964c9eU, 0x3d87ce9ebdb71c73U,
  0xbd9312ef3d89af52U, 0xbc39dc00bcc3752aU, 0xbcf9ad7cbbf32984U, 0xbd83c6d93da28ac4U,
  0xbda7400ebdc1d032U, 0xbc9cc7c4be00d22fU, 0xbd2e601a3d923c72U, 0xbd34f3ea3c7d833fU,
  0xbc8e29c4bcf48e48U, 0xbce327c9bda5f2d5U, 0x3dd2991b3d8227a1U, 0x3d51cbf9bd1075efU,
  0xbe2153473de1ee49U, 0xbd693e633d0fca00U, 0x3d2cd1cfbdf18f9aU, 0xbd5cce58bd5e019aU,
  0xbd8d04bb3c517bb2U, 0x3d2962543cbad314U, 0x3d99b0c1bc3ca92eU, 0x3c068cd83d059e64U,
  0x3b11ad48bd93359dU, 0xbd1778763bd6ebe4U, 0xbd8456823c3eb9ecU, 0x3dc9d408bd04500dU,
  0x3d82af4ebdd2226bU, 0x3d5bee02bc883db4U, 0xbd05210fbdbd9f46U, 0x3e121d98bd1bec1aU,
  0xbce868973cc8e7cfU, 0xbcfc83133c4c5d38U, 0x3db023713cf17d20U, 0xbdd0374d3d19e46dU,
  0x3db744a3bd150fe4U, 0xbdac27b4bdfb94abU, 0xbbe24a2fbd9a168cU, 0x3cf1b0543ce86c83U,
  0xbb4d8009bdd8f28dU, 0x3c14814a3c8ee859U, 0xbe4ed9bdbdbf05f0U, 0xbb1bf4a1bc9fdf92U,
  0x3dc396e2bbe67075U, 0xbd4a2d06be07871aU, 0x3cc027543ddf22ffU, 0x3c9fa52cbce61189U,
  0xbd935bae3d0dd4cbU, 0xbdb8e8353b010f9fU, 0x3d9e980e3d431827U, 0x3d0ee2b1bd98b7f9U,
  0xbd21d4ecbdc31588U, 0xbdb550153c50ffe3U, 0x3cf8b5d2bc3b635eU, 0xbccf28c33d205f45U,
  0xbd9d2dd23b189382U, 0xbd4c8999bd341152U, 0x3cb0d4713d64cbf5U, 0x3df76da7bc1bd99dU,
  0x3c95cf6ebd10008fU, 0x3d01f0e43c760389U, 0xbdeaa1ddbdb82b83U, 0xbd510879bdd01de1U,
  0x3d40fc573da942f7U, 0xbe0087033d136333U, 0xbe04c162bd6c1779U, 0x3ce5f92ebd3900a2U,
  0x3d9b8c63bdbb2608U, 0xbd45a3d6bacd0063U, 0xbcd31cc4bdbdc536U, 0xbde2cdc4bc142823U,
  0x3ba32b4bbd79f8cdU, 0x3e1807113d2dc6caU, 0x3d2dfadcbdda1c41U, 0x3d85f153bd93daf9U,
  0xbd8b211b3df4c6d0U, 0x3def6b88bc8865bbU, 0xbe166dfebe699820U, 0xbc12dd8cbd4607f3U,
  0x3daa530fbe1d4b5eU, 0xbdc1be56be270baaU, 0xbdb6746c3e295adbU, 0xbdee4642be232d89U,
  0x3d71083d3ce95f1dU, 0x3c3367d53e0beff4U, 0x3d5237623d8c5527U, 0xb99c33653c6976dbU,
  0xbd44de0bbe1be55aU, 0xbcaad483be3c5044U, 0xbda9964c3c2d95e3U, 0xbe4fe8bc3d2cf4f4U,
  0xbda6347f3cf8e18fU, 0xbd8e5ace3e03de7eU, 0x3e0bd5ef3de5aee3U, 0xbe020c363e16c07fU,
  0xbd568e7bbb456c22U, 0xbc94d57cbd8f4ab5U, 0x3cc37263bc9a91d1U, 0x3e2cff3fbd4ccfddU,
  0xbd8905e43dd06cf5U, 0x3da9d5d83e13aafeU, 0x3bb27cc43c405591U, 0x3c7e95633b88a946U,
  0xbd45ba4b3da7e0a7U, 0x3ae2d26cbba80677U, 0x3d7d49d93e0d7755U, 0xbcfd7315bcae6f15U,
  0x3bcb9bd5bca0f613U, 0xbdb2be803cdc413dU, 0x3dabb075be2162dfU, 0x3d4cb7ee3c8f9239U,
  0x3dbb43ca3d124f18U, 0xbd208e773d802233U, 0x3d7869b9bc54af26U, 0xbd482184bc15b762U,
  0xbd62fcdf3e10a783U, 0x3df6663e3d47f280U, 0xbdb4c6b8bd8a657fU, 0x3de92c42bd057241U,
  0x3dfc6a1bbdd9f5b1U, 0xb812ae173e22a815U, 0x3baae58fbe08bea8U, 0x3cf3f2f2bd8642c9U,
  0xbcb722a7bd8c3d90U, 0xbdb447eb3cc06a8cU, 0x3ca0e0503d63bc14U, 0x3cca04d7bd1bd094U,
  0xbd75c759bd779bdcU, 0x3d5ac34abc2ead89U, 0xbd2b2aa3be050e64U, 0xba0a9382bca6fb77U,
  0xbd0f233a3d96b9cbU, 0x3d2603b53b402bbaU, 0x3d7c865e3b7e63f0U, 0xbd746fc8bd0ed1c0U,
  0x3d095f663d8e7e14U, 0xbbf4ba21bb0f5607U, 0x3d4d4f143e058c32U, 0x3cf127e5bd1fbdd9U,
  0x3c8d5153bd86c86bU, 0xbe2922dcbc343f4bU, 0x3dc1aa9ebd3bb111U, 0xbc0984fcbd3376ccU,
  0xbd8f7d0ebc129a16U, 0x3d967af93d03c68bU, 0x3d64859ebc0a77e2U, 0xbacd4bfbbc0a492aU,
  0xbd2561303dc42a18U, 0x3d71a280bcdda991U, 0x3c9ab7e5bdcf6f44U, 0x3d8a1344bc3afbdbU,
  0xbd9b7f03bca54cefU, 0x3d9799ea3cf37258U, 0xbdb6cbd3bc9dc34eU, 0xbcca063c3d1f7595U,
  0xbd9510063a46b413U, 0x3cbd1b48bd3ea04dU, 0xbd6b87abbd4e21baU, 0x3bfd23b6bc7a49bdU,
  0xbd06b9f53d37c347U, 0xbd6561773c17dae3U, 0xbd410b6ebd816d7dU, 0x3d0e16ed3c5dc16fU,
  0xbbfe4f0abd6494e1U, 0xbdf6b6afbd3b9b2aU, 0x3cfe9183be0a1211U, 0xbe1a91023d680e50U,
  0x3dc85eff3d0305faU, 0x3d187a12bbc258b5U, 0xbe5b18ad3cddb9a4U, 0x3c26a1febd788721U,
  0xbd356c573d48fc3cU, 0xbb89b62fbdc14cabU, 0xbcefae8dbcd84a82U, 0xbdb5a979bdf814daU,
  0xbdec6a593c96a575U, 0x3b151478bc450f76U, 0xbd4a1cc1bcdec60bU, 0xbd3b9d8fbd00e22cU,
  0x3954438dbd3818a5U, 0xbe6082efbb620443U, 0x3e052401bc7927e4U, 0x3d1516f0bd8bdc57U,
  0xbd81e3b0bd3c414fU, 0xbb985642bdf1c46cU, 0xbc1c92fabd95d749U, 0xbd242532bdc9f287U,
  0x3c8110993c1df2d6U, 0x3d11d4423cd8e651U, 0xbc51d2643cc3863cU, 0xbda4a09fbda7e72bU,
  0x3d8cd1b83d6f9480U, 0x3d30590a3cfcd4c5U, 0x3cd853f23c12c519U, 0xbd8d4b67bd19eb73U,
  0x3d0c34ecbbefcba8U, 0x3b8799b93db02e8aU, 0x3c0e4a583dbc5feaU, 0xbdbb2282bd167493U,
  0x3d15f8683c57d2faU, 0x3c6b95da3e097063U, 0x3e1120fbbd73285dU, 0x3cd40edebc24fed9U,
  0xbda5886b3da691b7U, 0xbd4a378d3c9b57f7U, 0xbd61b0e9bdaebd7cU, 0x3d45ea443d8161b3U,
  0x3cbca7f1bce063c2U, 0x3d70750bbc971485U, 0xbb226d203e165a12U, 0x3d5a97843d949aadU,
  0x3e1074b2bca1f212U, 0x3dbc2a8abdefe9dfU, 0x3d7dde3b3d603bd8U, 0xbbf3e7cebc790e5aU,
  0xbd51168f3d1f42f7U, 0x3bf647c5bd334fbbU, 0xbd4afaabbd59a501U, 0xbda7ed93b903e855U,
  0x3cba7accbdafe366U, 0xbd9e1481bc21b48dU, 0x3de3a77f3d9e8e80U, 0x3cc4cf433c824a02U,
  0xbdb18992bd86699fU, 0xbd346d5d3bbdbe9eU, 0x3c72ae03bd292ecdU, 0xbcab4c44bd5e710fU,
  0xbd65eb153dfb3166U, 0x3cf0bb0e3d31e400U, 0xbd08aba83d15e6abU, 0x3d9b42653cf343b7U,
  0xbd5cc8b2bc15e44eU, 0xbdfd36b4bd87e3f0U, 0x3de40f893e2557e7U, 0x3d116b7dbc2ed4bcU,
  0x3b9e2536bdcf562aU, 0xbde898d03dc2a3f4U, 0x3db29f143dae84d8U, 0x3d7b88073dcdee7fU,
  0x3d91282abac398b6U, 0xbbfa72f53dacf32bU, 0x3d286f3abdfad777U, 0x3d0277b03d4a0c3fU,
  0xbd6a70383cbb5719U, 0x3dfdf1cfbe1000c6U, 0x3b964e12bd6c572aU, 0x3d832a83bdce4980U,
  0x3dac2fdb3cf91924U, 0x3d9b923b3e0c74a1U, 0xbd33a5e23b8d525fU, 0x3d0b6a4cbd900dbfU,
  0xbdbb065cbd84f0d2U, 0x3d24c02dbd72d3b4U, 0xbdc9188bbd82ab8eU, 0x3d529bfbbdfe4331U,
  0xbd81062c3cacc9fdU, 0x3c2fe65bbca6ebacU, 0xbd8593e93c8fe3c1U, 0xbd3cb1e6bd5f984aU,
  0x3c9356fabd70b863U, 0xbdf31079bdde4c82U, 0xbd13ded6be08f955U, 0x3d18e0a1bc733b32U,
  0xbd1dfe6bbde77a5bU, 0x3d27230abbd6d9e1U, 0xbe5dc90ebcaf5930U, 0xbd1af2aabd146f9cU,
  0x3c9564c43d8a3757U, 0x3c828e73bc47be76U, 0xbd646226bda9ec7dU, 0xbb69fe04be2b232cU,
  0xbd1cc4703d261452U, 0xbd49356bbd921b07U, 0xbdb787ce3d658da5U, 0xbd837052bd152c1dU,
  0xbd6105bfbdb49699U, 0xbe0594523dc82ecbU, 0x3cdfd1d1bb997c07U, 0xbd425554bd68b127U,
  0xbe001770bda325f2U, 0x3d3957e1bd93275bU, 0x3d3e6cff3d114c8bU, 0xbd312e26bd5e8157U,
  0x3ca05c1f3d393cf7U, 0xbbfaaf403d165d49U, 0xbca29ee8bca88249U, 0xbdecfb71be13f4f5U,
  0x3b6973123bbb4251U, 0xbde4194cbdcef071U, 0xbc096bfabdd5877fU, 0xbdab841ebe000b63U,
  0xbcf4d9a3bda5ae84U, 0x3ca2f3983ce95324U, 0xbd33f2203b90e0ecU, 0x3d3b3d653cb621e4U,
  0xbc714cb13cf4334bU, 0x3d508a323deb8339U, 0x3defa06ebd6d27ebU, 0x3d866dff3ce0e032U,
  0xbd4374aa3dcfae9aU, 0x3ba9d68e3b3aa9baU, 0xbe3cac80bdfb421aU, 0x3becc2393d96269eU,
  0x3c93fdafbd3aaa75U, 0xbd14f488be06e4beU, 0x3db4497f3de71567U, 0xbc4c60f4bdeea124U,
  0x3e3f6b25bd892693U, 0x3d60bbfbbdea2798U, 0xbd6e2f36bc644037U, 0x3d4827f2bca2c0d5U,
  0xbc05aea8bd1756c6U, 0xba9034a3bcda1334U, 0xbd0957d7bc97aa7aU, 0xbd5f7413bdc31c61U,
  0xbd84becabd95bc8dU, 0xbccfa7d7bdfdcc35U, 0x3e1f49fa3e15e641U, 0xbc8d2a6b3dc5014fU,
  0xbe1e3229be5039aeU, 0xbc0a74893d377392U, 0xbcd8c81cbdec7fb2U, 0x3cf42dd33b1882bbU,
  0x3bfaa6e03e2985dfU, 0x3e2478af3d811215U, 0xb85fa2b83d7df524U, 0xbc796595bc001939U,
  0xbd0d7e213ca5f977U, 0xbe1cca8fbd74ce35U, 0x3db753b63e53a2bdU, 0xbda0afd43b3b38cbU,
  0x3c2d9b22be7ee028U, 0xbe83d9513def7427U, 0x3df536f93d157213U, 0x3df2086e3d8d007bU,
  0x3db7d449bd734623U, 0x3d7bd65e3deb89d4U, 0x3d9ce478bde63139U, 0xbd61b2a03db06336U,
  0xbc6ea38b3d3ad0e4U, 0x3e3c20f7be8443f4U, 0xbd33eb85bd35bf63U, 0xbd33cd26bdbe40b0U,
  0x3df3652eba44e2b2U, 0x3e17ff553e300135U, 0xbdb77bb0be00dba2U, 0x3d8e38613c695a36U,
  0xbbd0e5fb3c9f7406U, 0x3c4d19e7be19f2aeU, 0xbbe234abbe08554fU, 0xbd4a64f6bd9f1ae0U,
  0xbd0757e23d136c45U, 0xbe036ce03d18ff8dU, 0x3ce43eac3cc199d0U, 0x3cb9e9583daa07b0U,
  0xbb8d9b7abd7eacb0U, 0xbc6c97cfbd92af85U, 0xbc910742be3db65cU, 0x3b8338243c87469aU,
  0xbcb2cf5cbdcde650U, 0x3d423d59bd9a2713U, 0xbe888d88bd79ec69U, 0xbda02b5ebb975be6U,
  0x3dbaf22b3d9fa885U, 0x3d967305bda20e52U, 0xbd8092f53c7cf461U, 0xbc93cd31bd816653U,
  0xbe12cc0c3d26b252U, 0xbd886181bd531fcbU, 0xbdb72b723b994a96U, 0xbd0176f9bd06d935U,
  0xbdb504bdbdb2599dU, 0xbdfc067a3ddc000eU, 0x3c487bd2bd39f2ebU, 0xbdc40e81bc9533fbU,
  0xbdd48b6bbc94f291U, 0xbcc4be8f3c2d8f4dU, 0x3c4dffc13dbd562dU, 0x3cbc4033bc1fac3eU,
  0x3de03b353c8f97c2U, 0xbd3a6d533d9db288U, 0xbd82f5ecbd7ba93dU, 0xbdb1a545bdf25d8eU,
  0x3da9d7a83b93d129U, 0xbcbb24ce3b8cf5aaU, 0x3ce4e926bda80728U, 0xbd4dcfbd3c5739dfU,
  0x3c464ac6bdce5693U, 0xbcafff713d073ef4U, 0xbd3c49633a860d62U, 0xbc397d0bbd7db1dbU,
  0x3c463e5cbd36bb7aU, 0xbc1aba013cfaaf2bU, 0x3d066b69bdaeeddcU, 0x3d24647fbd46e1f8U,
  0x3d15257d3db28f78U, 0x3c1390b53ccc4ee9U, 0xbe26b0ebbd55b2beU, 0xbcfc4d6abced4f55U,
  0x3d238306bde3ea61U, 0xbdb15cfebd947cf7U, 0x3d11200d3d7f0da5U, 0x3d2f1e6fbe399824U,
  0x3e018dc23d5f0519U, 0x3ce09dcbbd29e2cdU, 0xbd4b58debc90cef7U, 0xbd227b9abd8cb953U,
  0xbd132d8e3cfcab25U, 0xbc8151edbdba975eU, 0x3b2cb88abdd20377U, 0x3ba214d63cba16a6U,
  0x3c0e6d27bdae56a4U, 0x3c85859cbdda7070U, 0xbd2ec26dbd8e28ffU, 0xbce0cb6bbd8c909eU,
  0xbd850e6d3c52972aU, 0xbdac221a3da41e31U, 0xbc0b7014bd3faffaU, 0xbd7a8e66bcfd8896U,
  0xbbab840abd751dd5U, 0xbc290710bdd98367U, 0xbdf2e16a3cb74608U, 0x3cc10c563c8a93d9U,
  0x3d1083663c875bf3U, 0xbd6fe2a83d26dfe4U, 0xbd1e58083c3aff68U, 0xbddfcd753ae43a7bU,
  0xbd6f7f50bd127de6U, 0x3bd9d875bd53fe3eU, 0xbdd6cebb3d117083U, 0x3d9325b73d08e666U,
  0x3c807677bd540a1bU, 0xbdda713cbd615e89U, 0xbc95a2c43d3e31a3U, 0x3c26a6e43de416ddU,
  0xbc62d8d4be0fc2dbU, 0x3cccdfa1bde8e864U, 0x3c1133db3d65358fU, 0xbddf5901be0e212aU,
  0xbcb1dc5abc2cc32bU, 0x3e0bdcd33d42ff37U, 0xbc1823a6bcd0c32bU, 0xbd43dbdaba737118U,
  0xbdbf549cbda47c1fU, 0xbc4c1520bd528704U, 0xbc117e54bdbc218eU, 0xbc3a84b6bc4e0a14U,
  0xbdcdd9d1bdca7889U, 0x3daee4943d746ebeU, 0x3d8ee737bd7e828eU, 0xbde7ad653dec87b4U,
  0xbd507afdbe0a8ebcU, 0xbe1fd43fbe2a61c8U, 0xbd0ba0423df6051dU, 0x3d6b825dbc102f77U,
  0x3d50cd733cc659b5U, 0xbe0d3524bdac0667U, 0xbc6a0cf8bdd67174U, 0xbd9740eb3cc5e211U,
  0x3dd4e5bfbd609b9fU, 0xbdb2de01bdb3564aU, 0xbd7e8b9bbda5c2feU, 0x3d3bdb173d505da5U,
  0xbc969f91bd118253U, 0xbe2792473b80cb9bU, 0xbe0bb46ebd5a8b46U, 0x3e0268583ce22f39U,
  0xbe0c16adbd0b74eeU, 0x3db45ef73ceef92fU, 0xbd23922bbd36b76aU, 0xbe22d2a2bbf8c1d3U,
  0xbd48c37d3dc184eeU, 0x3c197245bdc7b036U, 0x3d80de1ebc614bf3U, 0x3d61581d3c93d0d5U,
  0xbe8835e6bc91bd60U, 0xbe008e2f3ca9918eU, 0xb9f9c4d2bc4ca8f8U, 0x3dd21749bd202335U,
  0xbd80e238bd53ae7dU, 0x3e14cd0abd842d2bU, 0x3cb799ecbde8e8f2U, 0x3d466a953d13cb49U,
  0xbd5226693dac4388U, 0xbe6f1d6a3d055fd9U, 0xbcdc2cd6bd08a757U, 0x3b02b553bad03cd9U,
  0xbd8920cdbceb8422U, 0xbd5212adbcfff6b9U, 0x3d8f765cbc8def37U, 0x3ccdf2f4bb8bea80U,
  0x3d844f63bd2c9db4U, 0xbd014f55be05ba09U, 0x3dff8ad6be5988b7U, 0x3cbdb8413d3bb2e4U,
  0xbd9853f63daa2373U, 0xbd2d5f663d6df6b0U, 0xbdfaa202bd4445e7U, 0x3dba068e3cea6c83U,
  0xbd9abd663dc1a768U, 0x3bc0a1fa3ceb2dcfU, 0xbc690556be4a89b9U, 0x3d9206e9bcf9733aU,
  0x3ce59658bd349f12U, 0xbd53c7cd3cbd27abU, 0x3dd3dfb4bd094cbbU, 0x3cb186b1bda0b485U,
  0xbe222410bd796400U, 0x3dc3c02e3a6e8463U, 0xbd420510bd862c2bU, 0x3d92d862bdb577b2U,
  0xbd030fffbcf9048aU, 0x3e6fb13f3dc5f7f4U, 0xbd1c86ccbdc256c0U, 0x3d7c71273dfaca29U,
  0x3dcb57e4bc9b7d57U, 0xbe29f5a2bdb630e6U, 0x3d4a14dfbdaaf28aU, 0xbd0fb289bc98cbd6U,
  0x3dddd1b7bd8313b7U, 0xbcfa7952bca2533cU, 0xbe14cd37bce6a693U, 0xbd149683bd5bc6a5U,
  0x3d958f97bcebdddeU, 0x3cb21edf3d7ac193U, 0xb9e72f12be2a8452U, 0xbcbb1b23bd4cadf1U,
  0x3cce451fbd11515fU, 0xbd0ea2813d97bd4cU, 0xbe01afdebd2cb34eU, 0x3de48228bde21b68U,
  0xbe29de0c3b323bdeU, 0xbd2d7bbf3dbf3f28U, 0x3dbd638fbd61b0c6U, 0xbc8417203c813f41U,
  0xbdff933e3d6922bcU, 0x3d202b4ebd756d5bU, 0x3dc5093b3c23c9bdU, 0xbdc994113d4ea735U,
  0xbd0ee11a3db6812eU, 0xbd8800bbbd0a97daU, 0xbd2c074b3b6b4f1aU, 0xbc6df234bb164ea0U,
  0xbc92808e3cc820ecU, 0x3c70f6abbd921d45U, 0xbd82e826bd8feb34U, 0x3c8329e2bdcbc23bU,
  0xbe0371c7bc5c8bfcU, 0xbd4a2aef3da859e0U, 0xbbe73e9dbd98fd7fU, 0xbe0a30a13ba5cac6U,
  0xbd8b0df5be1031f0U, 0x3cbf4eb4bd939b6eU, 0xbd11525abcbb691eU, 0xbd210943be1084eeU,
  0xbcbe5f30bc516428U, 0xbd36827dbd1613b6U, 0x3d469c93bc9396dbU, 0xbdcc015ebd5c49f4U,
  0x3c9ee3ac3d8a763dU, 0xbd2e09d0bcd12a34U, 0xbca0e757bcbc678fU, 0xbde946d3be08306cU,
  0xbd8c86b63d9d9bc6U, 0xbda8864f3cf880b1U, 0xbd28ade9bdd64f11U, 0x3d51bdb2bd3e44afU,
  0xbcbd9d9bbe2d7a40U, 0xbd2fbd4cbd39a574U, 0x3d417b8ebcd66215U, 0x3c82b714bdc69c3eU,
  0x3d3b75023d2f4e7eU, 0xbdda6dd6bcce8e3fU, 0x3d04cce4bc947240U, 0xbdee88c5bd559831U,
  0x3d872b4a3d60f69cU, 0xbe711709be06433cU, 0xbdd6d05ebdd9c89aU, 0xbd886e38be01fa7cU,
  0xbe00f87e3bbbf6e5U, 0x3d3dd71e3da8b085U, 0xbd97a997bdc52ea1U, 0xbd8df41ebca644f8U,
  0xbe60c516bd271a35U, 0x3d350c03bd21a4ecU, 0xbccdad253d7672b6U, 0x3d2235e2be3543adU,
  0xbddf38e93dc6ed7cU, 0xbba24cc2bd9d94e9U, 0xbda5a9693d18dbf5U, 0xbdfb77bebced4b79U,
  0xbe06b6a63d10fd66U, 0xbd2f4433bcbe45e1U, 0x3dc784673b70ea29U, 0xbe6bead6bdb4656bU,
  0x3dc408033cdb7aaeU, 0xbd56e95c3dc417faU, 0xbdbc2eb7bd5c838aU, 0x3dae3b6bbd2a8aa2U,
  0xb9ea94a7be1c4db8U, 0xbd9620a23c3e7995U, 0xbdffa7103c569c94U, 0xbceda342be34cee0U,
  0x3e24dd103e1ef87eU, 0xbdf9c4673e17d207U, 0xbcac91ed3e292be2U, 0xbda99bb73df7bfaeU,
  0x3d02b02d3da2c387U, 0xbe714b85bdf7bc5aU, 0xbe20d86bbc8ec76cU, 0x3de7c0ddbe31bc34U,
  0xbd7aa78a3de3edefU, 0x3e06b2263e453a30U, 0x3c31da763d30f7b2U, 0xbe03b7073d43d964U,
  0xbcefe7f13d220f3dU, 0xbcab94ce3cd2acc4U, 0x3ccdc97e3e492c44U, 0x3dcb27fcbe1988b3U,
  0xbe46b4913dc29cafU, 0xbd61aa3ebcf1d745U, 0xbc15d0373de88690U, 0xbdb2404fbdc3bb4cU,
  0xbe270d933c6548a5U, 0xbd982ab13c8559fdU, 0x3e3c31f63c67413bU, 0xbe37e665bc8cb9bdU,
  0x3df436bb3d568e96U, 0xbd8fe1483c9b0756U, 0xbdd6cda4bc43acc5U, 0x3dafb2653ca99ffdU,
  0x3dd1e4abbe4fbdafU, 0x3b85cd683d90e007U, 0xbe337ef7bd81e7e3U, 0x3ce47db9be1b729eU,
  0x3e2ce6d8bc351463U, 0x3d34ead6bde47599U, 0xbbf9a6a2bd27f2e2U, 0xbbf1a0733c9aa8efU,
  0xbd378eebbbfccb0cU, 0xbe4d13d03db8c4aeU, 0xbcaaf07c3c9970e7U, 0xbd8945533c038f13U,
  0xbcea1ef3bc192e50U, 0x3d9140943c01150cU, 0xbdb2beec3d204131U, 0x3c8e5ab5bc14f9f1U,
  0x3caa5564bde7f52eU, 0xbd083bffbd585de7U, 0xbd2233443daaa1e5U, 0xbda9e6023da068f4U,
  0xbc25e414bda37cf9U, 0xbe0c7cb0bde2295aU, 0xbd67622b3d8d9dc8U, 0x3d17d148ba04cfdaU,
  0x3c40a832bd94b0f3U, 0xbdd847febdc5a71bU, 0x3d7f9dc7bd5fc367U, 0x3bba7696bd0ea689U,
  0xb9148bf3be21de2eU, 0x3da1db95be10558fU, 0x3cf68c643e1da6c8U, 0xbdb9907e3d21581bU,
  0xbc4aee003d3d7b80U, 0x3c709bb9bbf34250U, 0xbdc3cc93bdcbb89cU, 0xbd41ac513d942dccU,
  0xbda49d0ebdd07920U, 0x3de5f90cbda15803U, 0x3b544a4fbdda897eU, 0x3dc50e4dbdd24ca2U,
  0xbbf315ff3ce9dfaaU, 0xbd204a2dbaf56eadU, 0x3cf82c3d3c5a0b9aU, 0xbc81b2cb3d58422aU,
  0x3d866e663a02bbdcU, 0x3ccb1c37be3dd500U, 0xbda4af853dcd2982U, 0x3d9b5e8d3c889742U,
  0x3d33caeabdc84ebeU, 0x3ce5886fbb0f8503U, 0x3cdbaee0bdf7fb36U, 0xbd636d703d7f425cU,
  0xbd7da966bd262f1eU, 0xbafc7e903d142223U, 0xbbe86785bcea69c9U, 0x3c8f1d193d8ff229U,
  0x3dcd10b8bcdf0adcU, 0xbd93e461bced6485U, 0xbdb781fbbd234c8bU, 0xbd4312f83c29ac9fU,
  0xbd839316bd91df01U, 0x3bfe69013dae2e69U, 0x3dd49ddc3d3a19c9U, 0xbd4182923b9dcd2cU,
  0xbcd48decbc16a741U, 0xbc9a82973d36d46cU, 0xbc0361043d965aa7U, 0x3cc93df53dbb5333U,
  0xbd30ae07bd088478U, 0xbc600a27bd332f0dU, 0xbd83631dbd4d5e12U, 0x3ac3f3f33c9bcda3U,
  0xbd922e8bbd4ac4ffU, 0xbd6fb87d3cd49a5aU, 0xbdff8315bd25f77aU, 0x3d06940d3d51ee4dU,
  0x3d2f3dba3c5f7805U, 0xbbd41ce93a9201aeU, 0x3de3cb1bbd949c43U, 0x3c657e843c9101e7U,
  0x3e1d3d73bda28580U, 0x3c347ceeb9f8b225U, 0x3d17e550bd7bf9f2U, 0xbdca6b4bbd3ddcf6U,
  0xbc0dceffbd7acc98U, 0xbe29cd9b3cd736d0U, 0xbdae9cb0bdd06f7cU, 0xbdb76c87be33759cU,
  0x3c204c64bdd0cb30U, 0xbdab23623d454ddbU, 0xbd5c2a08bd1a5848U, 0xbd5d92f63d8af592U,
  0x3d31d3a3bcbd61c7U, 0xbddcb3cebd1edcf5U, 0x3dd51c21bba82ca9U, 0xbd0895edbc016e41U,
  0xbe07d42fbd05abe6U, 0xb9e71137bd827b8aU, 0x3bd59d4bbcfd196aU, 0xbe0fec813cf54efbU,
  0x3d3ae1d33c3b711cU, 0xbd1c6714bdb8726eU, 0xbdb5f49abda7ed82U, 0x3db834223cbb7b55U,
  0xbdcedf81bd9e6e81U, 0xbc703d193cf5fae8U, 0xbdbf88b7bdc3cc8fU, 0xbd3e2449bd87ecc9U,
  0x3dc816663d19de56U, 0x3d46e851bd8865aaU, 0x3d7e930abdfb04cdU, 0xbdd300bf3c37e6a5U,
  0x3d552ffdbdfa6419U, 0xbddced89be353297U, 0xbd0a2346bca9d06eU, 0xbe06ee5fbe0a6404U,
  0xbd6ddfdabdee928eU, 0xbdfc1bedbcfaf296U, 0xbc5a8460be073e9bU, 0xbe21d0e9be3653f0U,
  0xbd9cd181bdcb2731U, 0xbd3001e9bd401504U, 0xbd909156bdd116d4U, 0x3c71ead63c78a047U,
  0xbde13334bd78bfd8U, 0xbe469fecbd917603U, 0x3d0273513d1e4dacU, 0xbe16b7cdbc586b8dU,
  0xbe02f635bd42ee35U, 0x3c28d34abd03a2fcU, 0xbdba0133bded19cfU, 0xbda16415bd4aaa31U,
  0x3cea8ee03cf7ed20U, 0x3c8e23eebd8d0451U, 0xbdbf0630bd08cb11U, 0x3d4d7017bd2aec1dU,
  0xbdae0670bcce4949U, 0x3d5c9ee33d90b968U, 0xbe1dcce5bda55e1aU, 0xbcbeefbebcce2910U,
  0x3cf0c10f3d15dfb6U, 0x3dfa00c9bd8416e5U, 0x3d5d2c403b824b6fU, 0xbdea87be3cf5f000U,
  0x3d7c6106bd0a6f22U, 0x3c9a26eabdd0eb51U, 0xbc75048dbcc12639U, 0xbd7f9acbbd0f9977U,
  0xbe055057bde82a38U, 0xbb0859c0bc910d88U, 0x3bb548003afe72a6U, 0xbdc32068bda8c7f0U,
  0x3d4ad7a53afff3adU, 0x3d452973bd26ce60U, 0xbc8e251abd98b502U, 0xbd2ad6163c5e5abaU,
  0xbe07bf8ebcee7270U, 0xbd5b99dcbd5555f2U, 0x3d8925503d0dd31fU, 0xbda0a6753cdc381aU,
  0xbd368bb93d499f93U, 0x3c16d41abd86c886U, 0xbc8270eabc0cf1f9U, 0xbd4b48453cd4aca0U,
  0x3d3c2a8ebda88c98U, 0xbd8844543d174583U, 0xbd45e6c83c944d42U, 0xbd8630b33d187c38U,
  0xbda495b2bd0078e5U, 0x3d0b87d03cadc5eaU, 0xbd43f9f9bd44dc88U, 0x3d184e553c33276eU,
  0xbd4fee343b8eae9dU, 0x3bb66bf13cd0a964U, 0x3d9d7e41be0b1a74U, 0xbd93b598bc1bb461U,
  0x3d6f1ce33bffcc39U, 0xbde9fd8cbcda2ce5U, 0xbaf4a953bc754328U, 0x3ca846f93c6228b2U,
  0xbd4494e5bdaa211cU, 0xbd7e4cd5bcf544dbU, 0xbd15e2cabd7cb1d7U, 0xbd7f1183be06500dU,
  0xbd9c73613d5836d6U, 0xbd0fa4a73d5cc171U, 0x3d6cb667bddf8debU, 0x3b9e4d98bc6afc82U,
  0xbc1ba771bd1c8540U, 0xbe1a884fbdec6231U, 0xbd2d39a2bc3d5e7bU, 0x3b6858403d0b7a2aU,
  0xbd83fa603d9255deU, 0xbc6b4001bd5b9eadU, 0xbd9e08b0bdf7f55aU, 0xbdb39921bd582385U,
  0x3be08ad3bce9d3f2U, 0x3d0b3d803db4d2adU, 0xbc56afafbcb2d47bU, 0xbc72ca023cc8ea56U,
  0xbe086c8abdcf6633U, 0xbd6d44093d5c7890U, 0xbe3f7277bdafe63fU, 0x3dbc2125bd8952e9U,
  0xbc1af5ee3d01b24cU, 0x3db2060f3c00ae23U, 0x3c99c900be2a2afdU, 0xbe1366a13a115c62U,
  0x3d913411bd98617cU, 0xbda6ba2dbd87509aU, 0xbd2f005c3bb03c2eU, 0xbd88840cbe2f3d87U,
  0xbdd02d1cbe302409U, 0xbde53773bcbc1124U, 0x3bf593c2bd159a38U, 0xbdfff574bdfb9b6dU,
  0x3a8a0579bd250623U, 0xbda681343c81998eU, 0xbd485fc0bdc047d7U, 0xbd8630cc3c9991f7U,
  0xbe155827bd160c06U, 0xbe112f76be01f3ceU, 0x3d20c4d23b84efcbU, 0xbc8262593d200332U,
  0x3bb28c3dbb885091U, 0xbaf14d943c0b083aU, 0xbe2d7cc0bdd2c68cU, 0xbd0efe8e3ca71371U,
  0xbd62b383bd2e7e4bU, 0x3d13c24ebd885809U, 0xbca6677ebd99887dU, 0x3cccc1c73b405534U,
  0xbd7688543babbd5aU, 0xbc85751b3cb21ee6U, 0xbe3ca90ebdd61d87U, 0xbbadf4c2bd8332d3U,
  0x3c93861b3d039abeU, 0x3ddd792abd514948U, 0xbd96f630bdd12323U, 0xbdd438133c8fb23cU,
  0xbcd65aafbd1d9b54U, 0xbcb1ec0abd272fe6U, 0xbda3099b3d86f84fU, 0xbdd9b983be2f6e28U,
  0xbe2703efbdb878bbU, 0x3d44fbb33da2e356U, 0x3d7f9dad3ccc6299U, 0xbe03d2debd9b916aU,
  0x3d3f8ba73cd2b7baU, 0x3d5b2c62bd24e3d3U, 0xbd0a299dbd761a74U, 0xbdfa02ad3d7b477fU,
  0xbe0c2c1c3c6a5c9fU, 0xbd4cf1e6bd18c504U, 0x3cd0b91a3d40b3acU, 0xbd863ca43c7a255fU,
  0x3c1c5a09bc9933a2U, 0xbb08c4f83cf15f28U, 0xbe0c8dbc3d77cfbcU, 0x3d93b8df3ced3085U,
  0x3dd3602e3d007ad1U, 0xbd048d0f3e0d7052U, 0x3dd6ae313e023612U, 0xbde0330f3e193ad0U,
  0x3e0965353d1f1531U, 0x3d1d65ffba0e5213U, 0x3da96087bd8aa312U, 0x3dd918703d3dcb8bU,
  0xbc5b75323d6a500cU, 0x3c8296a93e3d1e9aU, 0xbc81fe0f3dbaa717U, 0x3daf3e32bc85bf27U,
  0x3cf9153d3dcc38f5U, 0x3dd86d6f3dbc4355U, 0x3d52b7623dc35c71U, 0x3dce12053d6ce92aU,
  0x3d9278d3bbdcdc5eU, 0xbd0768f53d00f04aU, 0x3bdae2473d867be3U, 0x3d99a9593d23074dU,
  0x3b08d7093cb2dd5bU, 0xbddb31ce39eab7f8U, 0x3e069e943d600294U, 0x3ba9895a3ce76a0fU,
  0x3d9e72ed3ca19007U, 0x3e06b6043d940642U, 0x3d04d0253cf475cbU, 0x3e32b12fbd0c70aeU,
  0x3d3256693d8e0e8cU, 0x3dce7a143d7a3295U, 0x3dd89be1bd506c4bU, 0xbd8ecfacbc8b65c2U,
  0xbc5624d5bd817f19U, 0xbbb45dbd3d974e08U, 0x3e17073f3dff9d6bU, 0x3e07e0123da19dfbU,
  0x3ba1845bbb9d9f5bU, 0x3d46b77abc8e1b81U, 0x3c3c91ed3d312c10U, 0xbccf4fc5bc9f41f2U,
  0x3d987e533e05f641U, 0x3c94a0263df70993U, 0xbd46c4943d2ac222U, 0x3d9cb2fc3bb5eabcU,
  0x3d990692be0a85f0U, 0x3b363e953d13a5fbU, 0x3cbdba9d3d6bcc74U, 0xbb5f655fbb967a7fU,
  0xbc85d5ebbd55e04aU, 0x3c87d164bbd90345U, 0x3dc0b4193e25c84aU, 0x3d62a33f3d97757bU,
  0xbd89d16e3ce1ab5cU, 0xbc92bbd53d8b2d29U, 0x3db8efbfbc188b84U, 0xbc80d51dbd9e7878U,
  0x3c4cf04bbb357e58U, 0x3da694073d822849U, 0x3c0435603d887cdeU, 0xbd7bb9eabc299d9aU,
  0x3e0072da3d925068U, 0x3d80da863da2aab9U, 0xbc496deb3d190980U, 0x3de0a5d03c4b77b0U,
  0xbd4522d1bbd506a1U, 0x3dca5e7dbd7758daU, 0x3da7b0913c31e9ccU, 0x3dfaa668bd3aaadfU,
  0xbd8f17b13c817c0cU, 0x3c4a15943d41d321U, 0x3d939fabbd01be13U, 0xbdf24b053cf735cbU,
  0x3b1bbe7d3c8a5a1cU, 0xbd972500bcf0a340U, 0xbd8fcdd03dbceffeU, 0x3c64bba8bc9fca39U,
  0xbd971599be0c3c60U, 0x3d14c3bd3e026c13U, 0x3cd6fc0f3d1ec1d8U, 0xbd161e8abc2916c8U,
  0x3d1159093c07609dU, 0x3e3f620f3da81576U, 0x3dbe03a53e2a789dU, 0x3ddd5aaf3e090bdcU,
  0x3d0653ff3c859379U, 0x3db793ea3d1759d2U, 0xbdb49ac5ba8e0ecdU, 0xbd602458bcb28bfaU,
  0xbcba36a73c4df62aU, 0x3deb520d3d33515bU, 0x3dbdbac0bc7c2c11U, 0xbdace032bc89d56aU,
  0x3de3bb27bcddf100U, 0x3bca7b3c3e0c6e9dU, 0xbdc42db63e47f84eU, 0x3e5832fbbd1d3e74U,
  0xbdc4fcf4bcec07e3U, 0x3e087866bd1b7a16U, 0x3d4c129e3d461127U, 0x3cc8f4413c363ad5U,
  0x3c3f96843c522b38U, 0x3dfe1b7e3e080ac3U, 0x3cad4e263d106f0aU, 0x3da0bce23dfc3e98U,
  0x3d4d534a3d0e0adaU, 0xbd2db237bb461856U, 0x3e1126d1bdda4ab6U, 0xbd953fbb3e171aa9U,
  0x3d4c60f0bcd1e2f2U, 0x3bc1a72cbc0c5b1cU, 0xbd92e6f33d95600aU, 0xbdcc03bcbd91fbfdU,
  0x3dd218b2bde38777U, 0x3d6704bfbd914f25U, 0x3dc90027bc8adf00U, 0xbd95709cbd92e86eU,
  0x3df573b8bc6e79afU, 0xbc29e7b73e2059bfU, 0xbdd1eaa2bdf4bceaU, 0x3cb26d493be0286bU,
  0xbe2656813dcccd98U, 0xbc7cc1f93c8cc1f1U, 0x3d4661333cbf94f1U, 0xbd550ede3ced7942U,
  0xbc0b9500bc106094U, 0xbde49be0bd5f683cU, 0x3e4b711b3d4a21dbU, 0x3d8cfddb3e13ab89U,
  0x3b8a8b983c091e40U, 0xbc7c7ed83c7c5822U, 0x3cce28f03d983f0cU, 0xbc5e53a83e495ae7U,
  0xbc41f250bd9afc8aU, 0xbda060153d342a49U, 0xbd606e633d1a3c99U, 0x3d85db54bd0087feU,
  0xbcb47f003e120e7bU, 0x3ce2c2db3ccc04f2U, 0xbbe5c0c1bde60d5fU, 0xbda3bb1f3dd94ac7U,
  0x3c6de429bcb4e2cfU, 0xbd2e4b15babe4eb6U, 0xbd95dc403ddac6f3U, 0xbd61b9cebd89aa17U,
  0xbd230cd7bce01c46U, 0xbdbd9922bca412acU, 0x3d3eac3d3c8b65c3U, 0xbe23ac10bddae5cfU,
  0x3cdb31f8bd1b8bd2U, 0xbdfbcdeb3d9853baU, 0xbcd0753fbd4471cbU, 0xbd220ebd3be1dc4dU,
  0xbcd4c0463c880a0dU, 0x3a6264ddbe0eabe7U, 0x3aac7e1c3da1e21fU, 0xbd5599953d6fb6f8U,
  0x3d3a0a55bd8228ecU, 0xbdbaa0bb3d86d3d4U, 0xbda10b7dbd00f565U, 0x3db195653d45b6f1U,
  0x3c4eaa33bc0d9498U, 0x3c7a25543c9364ffU, 0x3d8121023d04eed1U, 0x3d82b36b3e1dbe82U,
  0xbdd5d042bdacd382U, 0xbce7912e3d945c7fU, 0xbe1a66a9bdca8ee6U, 0xbb08cbedbc6d9dfcU,
  0x3cc7040a3dedc348U, 0xbcaac6373c0e2407U, 0x3dc0aa82bdbdbbc3U, 0xbe1925113e10a062U,
  0x3da56655bd1ec9bbU, 0xbe07da69bde8cd45U, 0x3d053c523d80e298U, 0xbd34c73cbd7ddacfU,
  0xbd33df0fbe0e0f45U, 0xbdd46cef3d341ca1U, 0x3ddd16c03dc3962cU, 0xbe0587b4bd954f80U,
  0x3d96af223e1b0e94U, 0xbd70e7043d8766f3U, 0xbd7a7568be2e2e67U, 0xbd8fa90bbd9fc782U,
  0xbde5588a3caec391U, 0xbdcf98f2bca869adU, 0x3d44b7723da5fc3dU, 0xbd37f7463e017eeaU,
  0x3b999cf2bb2a63d1U, 0xbcd0d1c43d37f3b6U, 0x3c29e3743d4e1a06U, 0x3cf5a55b3cd09cb9U,
  0xbd26dfa93da97717U, 0x3d3578d43d975bd8U, 0xbd291d0bbcc76707U, 0x3cbb49a6bdf05d9cU,
  0x3d879db53d5a5070U, 0x3dccb528bc043c89U, 0xbd1f84ecbc82bf78U, 0x3d4a62f5bca88d1dU,
  0x3b7ccec0bca6bd04U, 0xbd981439bd0b5eefU, 0xbd12e67ebe294c1cU, 0xbda643cb3dba760fU,
  0xbcfccac9bba09910U, 0x3d7da02f3d776895U, 0xbdef40453c214d82U, 0x3da0dad2bcd88cbcU,
  0x3c9532a43d96930cU, 0x3d8ffb5ebd2ae22fU, 0xbd997ffbbd10f2d2U, 0xbe0af74fbdf739e8U,
  0x3d71a9c13d0b583eU, 0xbd9c58a3bd847b11U, 0xbd028efe3d52b65fU, 0x3cdb8004bcd30152U,
  0x3cb726003d9f5030U, 0xbe276f303d83e477U, 0xbc41987e3c08f602U, 0x3d9eed1a3ca50ff6U,
  0xbde26b1abd76e4bbU, 0xbe104ea9be00ea13U, 0x3c8718153d958f29U, 0xbd9a5bf13d3d7620U,
  0x3d1f1fe03d2df0e5U, 0xbd6052b9bda4e9feU, 0x3b79105a3c73b3d2U, 0xbd3253b8bc22544aU,
  0x3d2c6c5dbd9a12cbU, 0xbd2a1291bc495bb2U, 0x3d38b65d3dd05ddbU, 0xbd6a63143ce7a864U,
  0xbd3afd82bd600ff5U, 0x3ae30bdbbd073165U, 0xbc8e4711bb093079U, 0x3cc060333c42fe46U,
  0xbd1a89b03c597119U, 0xbc25e47f3bc2747eU, 0x3b7f76a2bd6e35acU, 0x3ca02ad2bd1d6cbbU,
  0xbd4435f4bc00bd1dU, 0xbd987c50bd958b4cU, 0xbc757d7cbd4a0deaU, 0xbd8c085d3cde6a58U,
  0x3c8c460bbd88639cU, 0xbd5b3b933d92bc30U, 0x3d79da233bccb398U, 0x3db70d323d5e98fcU,
  0x3d06a3a73d982ce8U, 0x3c7613febdc63d11U, 0xbcd2faaabd0a145eU, 0xbd102953ba04a3e9U,
  0x3cf0e88dbd100e2dU, 0xbde8b7af3c5a9f42U, 0xbb747c65bb82743aU, 0x3a266204bd9556caU,
  0x3c9aa5fdbcb0f8cdU, 0x3de4e8913abdb9abU, 0xbd4985ad3d1684cdU, 0x3d9174003d6bc758U,
  0xbd0c881dbd2248dcU, 0x3d149c653d499949U, 0xbdc0d041bd544ec9U, 0xbd098e643c59dbebU,
  0x3dee68573c1d1bb3U, 0x3d2d5784bd6d806aU, 0xbc0cb8e0bbdef957U, 0xba0b45b63dfc04e5U,
  0x3d085e5cbaa9a15aU, 0x3b9c75bf3d03856cU, 0x3c1adfabbd4cfc7fU, 0xbd22d1a2bc856fd7U,
  0xbd0b3c73bdeac377U, 0x3c07853cbc313732U, 0xbc814f893be2f177U, 0xbd841ff4bc6017a2U,
  0x38b0e01f3cfc16abU, 0x3d6a74db3c84e0a8U, 0xbd9707b1bc502864U, 0xbd2e7d053d9040edU,
  0xbda2fe8c3d35e990U, 0xbde699f03d1778d8U, 0x3de9f22fbd26e37fU, 0xbda959ed3d75e9bdU,
  0x3d9ca6a93d99d34eU, 0x3c7180603d757bcdU, 0xbdaff6e03dec9ce6U, 0xbca2672d3d390fb1U,
  0x3ce439823d3ad29bU, 0xbde98f5e3d9b5188U, 0xbdf046d83db3322aU, 0xbdc90395bdfbe195U,
  0x3dab79f93d944f78U, 0xbc06aa70bdace97cU, 0x3c3727a7bbff470cU, 0x3da81882bd95842fU,
  0xbdc69ec9bd1fbbd2U, 0xbda837bf3d3e9338U, 0xbdb8ea09be1bacd3U, 0xbdf2443b3dc238a3U,
  0xbe1bda0cbcc091f6U, 0x3c90156f3d0dee21U, 0xbdeb52823c06b3f5U, 0x3cfbcccbbe06c648U,
  0xbdec2ee93def8842U, 0x3c818415bd83897cU, 0x3c7a8ca63c9f6edfU, 0xbd8114acbe247dbaU,
  0xbd8f13233cb8c122U, 0xbe1dbee4bdfa234cU, 0x3dabeb313d80a5bfU, 0xbc582dbbbe34e58fU,
  0x3dc28ba0bc639dacU, 0xbdf4ff5ebd741dc3U, 0xbde64f14bd2fa3c5U, 0x3d946c24bbabee30U,
  0xbde0878bbd88e2f9U, 0xbda08911be090955U, 0x3c23336fbd8e82fcU, 0xbd81604dbdb395adU,
  0x3dc2980cbe0320a0U, 0xbe1d8d59bd98d9c2U, 0xbc688adcbdb41087U, 0xbdd63e7cbd957063U,
  0xbd77873dbdd4bd36U, 0xbdd9affbbddd5f6dU, 0x3c15c8093b833a48U, 0xbdf13ad1bd87094eU,
  0xbde045b8bdae67daU, 0x3ccff44ebd84b18cU, 0xbd8d8f9c3d0ef0c9U, 0x3cedc2183c6ad372U,
  0xbd14a39fbcfa83f1U, 0xbd17ebdb3c883004U, 0x3cd528abbe0324fcU, 0xbd93dee1bc5f8e79U,
  0x3d4e67f83cd743baU, 0xbdbf58d7bcab689dU, 0xbe1b4a6a3bbd1e14U, 0x3d3a95e63e103b7cU,
  0xbe04734fbd452efaU, 0xbd9721c1bd825df8U, 0xbd7f38e5bd5d0667U, 0xbc902aafbc4e5dd2U,
  0x3d9f9abbbe435be6U, 0x3dc5828fbdc695bbU, 0xbe293f30bd977c18U, 0xbbe3a7b1bd360dc3U,
  0xbd98c3bbbce3baa8U, 0xbda68a7dbdb0552fU, 0x3b891ec1bd9181d0U, 0xbd5138b7be1e400aU,
  0x3b50f55cbd4738d2U, 0x3d5d180fbcdb9b08U, 0xbd0ac009bd8ee87cU, 0x3d09f337bcc067a2U,
  0xbdedac873bb8066eU, 0xbcd47362bc65c871U, 0x3c106c6fbe403ab3U, 0xbd72a2e53d1140aeU,
  0x3c096960bdeb5e77U, 0x3ccbd86fbd704faaU, 0x3cc07d1a3d939674U, 0x3dcd6c863dc896f8U,
  0x3d87e4cabd99938fU, 0xbe1bf663bd9ab183U, 0x3d2aca02bdbaebf2U, 0xbcd00b613ddbf2a8U,
  0x3c8f6d65bd73abe2U, 0xbd09b588bd6e2c60U, 0xbd053c76bd24f2d1U, 0x3be16d593d56ec74U,
  0xbd64c2a5bd343a28U, 0x3cb17847bdb5ee7bU, 0xbdecc80fbd97cf60U, 0x3d23fca8ba9eb6faU,
  0xbd340c3fbdcb987dU, 0x3d98d661bdc32306U, 0xbc96c172bbfdea3cU, 0xbdfd0a293c8e5b11U,
  0xbcc742663df5a934U, 0xbc8a6d02bd286039U, 0xbd851f973ce88625U, 0xbcf4504a3df67ff7U,
  0xbb67dbd03c81c150U, 0xbdc639f5bd360da6U, 0xbd8f94fa3cae7fb5U, 0xbd82923bbd69ce6cU,
  0xbd45a377bdc02585U, 0xbe147096bd9cd86dU, 0xbdb0795dbdc2c4c0U, 0xbd5420a8bd1ffb06U,
  0xbdbf6a3bbd14b60eU, 0xbd89cae4bd7185ccU, 0xbd466fa3bdc0549cU, 0xbd9cfc013d8c612eU,
  0xbd9c2863bd9a1411U, 0xbdca1beebcfc2e27U, 0xbd38095f3a48cd80U, 0x3c25c342bd6cd9beU,
  0xbdc00c4dbd933e75U, 0xbd55e287bd9f7252U, 0xbd709fddbd96ec5aU, 0xbe058390be01df79U,
  0xbd1363a6bc7486e8U, 0xbdc5da45bd1098a8U, 0xbcc3fa3bbc6ce315U, 0xbd45972abd46a43eU,
  0xbd5e9030bd968549U, 0xbcf36a14bdcff083U, 0x3c1e9a0ebc6fde4bU, 0xbd3dd47b3d1d0827U,
  0xbcb80c1dbc80a6e7U, 0xbd5bde6abc49ef0bU, 0xbe23331dbd64a3e6U, 0xbe068957bdac5991U,
  0xbe2121b2bd5d8e78U, 0xbda0d7e3bda14f7fU, 0x3ca7bc83bdcbcd4eU, 0xbd878317bd8a2a14U,
  0xbdcd1d0d3b629f04U, 0x3ba6c212bd930c0cU, 0xbc9228d4bd470870U, 0xbca2e73c3ccdd03dU,
  0xbda81a30bd69d910U, 0xbd27b6483be5bb7cU, 0x3d5f13b03a8b010bU, 0x3cc94d6abd4d022dU,
  0xbd921c6cbd5da396U, 0xbc188043bdb8e2c4U, 0x3c96d364bdb4132bU, 0xbd9e6843bd10f558U,
  0xbcf21a81be03d587U, 0xbdc064ccbdad092fU, 0xbb136dc9bca8ec83U, 0x3d0eefd13d5724d5U,
  0xbd8c69503d1925b2U, 0xbd965a3f3d62f6fbU, 0xbd412dfbbdeddddcU, 0x3d862dd5bcc8d7b7U,
  0xbdd22f68bd31e606U, 0x3c492aad3ccdb6c2U, 0x3b62196dbda9bfd0U, 0xbd77521a3cf8295aU,
  0x3b15eb30bd67dcedU, 0xbd863099bd61c97eU, 0x3d37f5413d8d6699U, 0xbd9de11abd1c459bU,
  0x3d7dd7c23db684c4U, 0x3dbd8cb63c5e46b8U, 0xbc9ff1273d0d04d1U, 0x3db8d19cbd470f14U,
  0x3df888453d1145cdU, 0x3d8af7253d4d4023U, 0x3d30cb103db80a81U, 0x3bc45dacbd18b386U,
  0xbc88683dbc399025U, 0xbb4a29fc3d525820U, 0x3b1342bc3c1420b7U, 0xbc899a633cdb31aeU,
  0x3d4ee2d6bc4fe65dU, 0x3d61b90d3db9e574U, 0x3d2a6f0c3cda624cU, 0x3d8959103db84cb7U,
  0x3cf6178a3cb9bf61U, 0x3dc75191bda68584U, 0x3d8885673d737e41U, 0x3d3beaf4bc98d922U,
  0x3d059c03bc854777U, 0x3beb35403c2eab72U, 0x3cadc5ae3db30acbU, 0x3d0e4da8bbc6368eU,
  0x3d507d1f3e06a2d2U, 0x3d4114203de2a899U, 0x3d1f3035bb532994U, 0x3dbe8a09bd041d89U,
  0x3cf1a5b23cb8da50U, 0xbced279d3c39704cU, 0x3dce8421bc0ed904U, 0x3d69b315bc12b6d9U,
  0xbb2733b1bd60abc1U, 0xbdd7e023bd053e4fU, 0xbd61bb5ebca232f5U, 0xbd1cb5b3bd3a9d7fU,
  0xbd0021a2bcd5416eU, 0xbdcfcb3fbc988730U, 0xbddc6957bd8decc5U, 0x3d32552dbb0f0706U,
  0xbbc2409d3d4c4883U, 0x3d2322d0bd90e487U, 0xbd9d9756bd9e5b6eU, 0xbd84762d3d848fa8U,
  0xbda30b1dbd6275e7U, 0xbd370e5abceffd6eU, 0xbcf54c51bd84d2f8U, 0xb97f4f80bd9b4ba1U,
  0xbc3f3c0fbdc69ef5U, 0xbdf99b123cbd9233U, 0xbdbf6d85bdc8a2aaU, 0xbe128914be07f4d7U,
  0xbca6322f3c0ff223U, 0xbd13fb2bbd941941U, 0x3cbdc847bd7e6847U, 0xbd89a277bdce7cd9U,
  0xbd5dc9dbbd48b048U, 0xbe219e7dbdc7e446U, 0xbcbb5008bcd6a4beU, 0x3a91660eba9fc6b8U,
  0xbde94c1bbcdd8cccU, 0x3a3a5189bdd6fd06U, 0xbe15ca83be2cf5ddU, 0xbd822d45bd870f28U,
  0xbde2bef8bd82056cU, 0xbdee3930bd9ba793U, 0x3d67521ebda021acU, 0xbd738a5ebd0d0f1bU,
  0xbd1ba790bce9bc95U, 0xbc84fbf63c25511cU, 0xbd29fb18bd91031dU, 0xbd6aca12bc8e124cU,
  0xbd8236b43cb87606U, 0x3d9579163d1d657fU, 0xbda4bd593d175c1dU, 0x3dd1c4453c904dc7U,
  0xbd0843d2bd2a4030U, 0xbd969fdcbd44a952U, 0x3d1525c13c59ad24U, 0xbda14a223d54bfdbU,
  0xbb49017ebdeb00bfU, 0xbdcde0f53d1967fdU, 0x3cbfd7d7bc21e917U, 0x3d935c1a3c9eb889U,
  0xbd4383573d1b7e6eU, 0xbdbdf1c83d19d6b4U, 0xbd969560bcebcf60U, 0xbc73c630bd18a939U,
  0x3a81a2f0be024c6eU, 0x3d653445bce003ccU, 0xbd1e4c10bd919078U, 0x3d0fa6ec3d48970aU,
  0xbd8b64793cdd620eU, 0x3c5ea550bbb61e38U, 0xbd896065bd333ebeU, 0x3cc01c81bd8b1094U,
  0x3db64ebcbcc22f2eU, 0xbafd02113d625e17U, 0x3d91ceb1bc7f47b7U, 0x3e21dfd53c0dcf2fU,
  0x3d274ac23e0b77b3U, 0x3bc721803d88c9d0U, 0x3db1ef9d3db47cb2U, 0x3d95af7c3c8207c8U,
  0x3d610c01bca3d7cfU, 0xbc4f79373d1522aeU, 0x3b8cdbca3bc5587bU, 0x3d54d874bc4cf2dbU,
  0xbd14b86ebd9f5e33U, 0x3dede8ef3e0cf1f2U, 0x3d0d63583c9d3909U, 0x3de4fcf83d4b3692U,
  0x3d8c6a223d80c407U, 0x3e16d985bda0cbfeU, 0x3c430abe3c8e6f21U, 0x3e01dea5bd48afa8U,
  0x3d82bb563d9ab8b0U, 0xbd45f4fe3d63a5aeU, 0x3dee8b473de3125bU, 0x3d82be853d1e38efU,
  0x3d87e44b3cb38ec6U, 0xbcbc8e6e3e566aefU, 0x3de4f8153d303715U, 0x3b2d6684bd47f3b9U,
  0x3ced27773db4e7c8U, 0x3c8a7cce3cfba03eU, 0x3dd4e2e03dd7ed4cU, 0x3d5b7ed93d71d7edU,
  0xbc82dd17bd3bf38fU, 0xbdbd8c29bd91bc61U, 0xbda8a3abbc56ce96U, 0xbd9e15a3bd470a4cU,
  0xbd394d7abd04431eU, 0xbc81ba8abc0442efU, 0xbd354befbe1541b0U, 0xbd535e5fbe0a516bU,
  0xbbc9f2bebda90f00U, 0xbd9a34f2bad0c2b1U, 0xbcfc4084be0542a8U, 0xbe28cfb73c3c726aU,
  0xbc98ae0abd998824U, 0x3c405065bca53931U, 0xbddd22a33c723138U, 0x3c10b39ebdd0ccceU,
  0xbd9e102bbd944e33U, 0xbdc34b73bdab473fU, 0xbd159f33bd090c17U, 0xbdd80a7bbdc8d247U,
  0xbd046332bd6ab8b4U, 0xbd7d318dbdcfc32aU, 0x3d3d14083c70bdb0U, 0xbd90429ebd9a4728U,
  0x3b863e6abd6cbc4eU, 0xbe328016bdd78a78U, 0xbd8765d8bdcc2cf6U, 0x3c04c3783d641eaaU,
  0xbd982d4fbdbab4c9U, 0x3c051d3cbd8d4a8bU, 0xbe0ef7fabdd83e2eU, 0xbd4059f5bce2d1daU,
  0xbc358486bd43073fU, 0xbe02590cbdcb3197U, 0xbb1b1e17bd9c4c3fU, 0xbd9f75dbbd2b188fU,
  0xbd74e824bdeb887eU, 0xbca8d428bd967079U, 0xbcaae618bde66f18U, 0xbcdbafc9bdb9cea4U,
  0xbe0ffda6bd93ac3bU, 0xbc627a22bc7c37dbU, 0xbd7daeb03d862659U, 0x3d0d9a1e3beefe5cU,
  0xbd95b4f0be35ea28U, 0xbd568634bda4e1acU, 0xbba8c9823a93497fU, 0xbda3dcec3b4a9b27U,
  0x3d2f5bc9bd9de8e4U, 0xbdecf3f4bdd21691U, 0xbd43dd6a3baec624U, 0x3d37a9713dcc847cU,
  0xbe0969573c45625bU, 0xbdc6325b3c122284U, 0xbd88f57abdd3d8a0U, 0xbd1521dabb967d73U,
  0xbd01b0d1bd9fbc74U, 0x3b9eaee7bd96bcf9U, 0xbdd4dcbabbdd2c1dU, 0xbdb09991bc1c29b6U,
  0xbd50322bbd1822a6U, 0x3c774fdf3cf82d7bU, 0xbdad34bf3d26e321U, 0xbd363937bdd714e4U,
  0x3dc7f0c6bcd13599U, 0x3d8a42173c7b52d6U, 0x3cca6b25bd89fccfU, 0x3d4c4379bdd90efdU,
  0x3aa4802b3e03de03U, 0xbcf42484bcecdc6aU, 0xbbaea23fbce545cbU, 0xbc5d96863d1736f3U,
  0x3c713ce7bdbdd21eU, 0xbd47ad51bd65b146U, 0xbd509861bc4a2f6bU, 0x3d6bb2613d4f2dabU,
  0xbbf18839bd4e5314U, 0x3dc205f23dcdc81bU, 0xbbb83e3dbd5afbfdU, 0x3dbd5126bcc41d90U,
  0x3d800a0c3dc6a05bU, 0x3d51bcb6bd4394d6U, 0xbd8d20a43d4359d6U, 0x3cf80176bcc71d00U,
  0x3d5b3ca53d4c88f5U, 0xbc8de90bbc35a177U, 0x3b25abdd3d807e3bU, 0xbd7c6ebb3d532641U,
  0x3dd532723d473846U, 0xbc879ff43e1e67c7U, 0x3da10edb3d553048U, 0x3d2ff948bd4f612bU,
  0x3ce09910bcdd279fU, 0xbb09dcd4bd53cad5U, 0x3d42b73abc4fbd12U, 0xbc55e4293d352d27U,
  0xbd91eb623caf3940U, 0xbcd620173cdcd875U, 0x3dfc7a273d827ebbU, 0xbc58e4383c96696aU,
  0x3ccfa30f3d4bf812U, 0x3d155514bdccc8a7U, 0x3db251da3d51279aU, 0x3d035c96bdbb9997U,
  0xbdb5c2e23e0222d7U, 0x3be2b8963db049b8U, 0x3c6d78cf3cc94ca8U, 0x3cb8f1a43df64732U,
  0xbd8b8ae43cf8e92cU, 0x3d8648543d0d129eU, 0x3b5a158b3d3028fdU, 0x3d2f83f5bc850e9eU,
  0x3d1bc5c43d23e3caU, 0xbc2d2d25bd70ccbbU, 0x3daa53703d600c9bU, 0x3d9b8c573dc5925bU,
  0xbde1c8833db57db2U, 0xbd59d2583db991a5U, 0x3d3ffe5dbcad3665U, 0xbc8724fabab74d03U,
  0xba7072ad3c8ce013U, 0x3df51c643d63ba56U, 0xbd853007bdc79ee5U, 0x3d9bf9a93d6c8c43U,
  0x3d9a7ec3bdbf55f3U, 0xbd29250a3d74c532U, 0x3cc3dbd7bc6a7169U, 0x3e077260bddf0975U,
  0xbd8fd9ae3c06df72U, 0x3d351b673d869bfdU, 0x3d8ac6aa3d8db936U, 0x3dd84196bd12db09U,
  0x3dce54dc3d18a373U, 0x3db8f179bcc32023U, 0xbd0eaa063cf1e0baU, 0x3d99e95fbc1c62a0U,
  0xbdc8f8783de4bea9U, 0xbde660713dc8821bU, 0x3bd43452bc3b10faU, 0xbd3315cb3d0bb761U,
  0xbda0a834bc41b6c8U, 0x3d0397c83c177706U, 0x3cf298c5bc8b6a21U, 0xbc70bf41bd842ac4U,
  0x3cf19188bc4202e3U, 0x3d31e40dbdcad115U, 0x3e003c193cb8bba8U, 0xbd18d302bd1788d8U,
  0xbe42f2613d978b06U, 0x3c8616ddbc05d2f5U, 0x3d9f66adbba196f4U, 0x3d1f5d59bd140577U,
  0x3c8b3257bd9ddaf2U, 0xbd04291c3db13a59U, 0xbc2104b2bd3f2167U, 0x3d2acb573d8f52efU,
  0x3d62085fbcfd61b0U, 0xbd3a75f63d1f981cU, 0xb9f2fd173bd17df7U, 0x3d8c7079bd626f42U,
  0xbd8aad71bcab1a4fU, 0xbc63f0763d11c47dU, 0x3bc5b9503cc600e3U, 0x3d478f7f3c4ce654U,
  0xbba67967bd68a238U, 0x3de211923d152cfbU, 0xbcea67cdbd8ef7efU, 0x3c57fa32b8e7d327U,
  0x3c9cbba5bbf3ae17U, 0xbe04d8393d8ecc56U, 0x3d7997b73ce5534cU, 0x3c837e523da1e0c9U,
  0xbd071d0abd486bdcU, 0x3d29cca03da9f9b8U, 0x3da252fb3c9c16d8U, 0x3d00fc65bcf244c3U,
  0x3d0cda6bbc10020cU, 0x3d2c8675bd3ecbb0U, 0x3d837617bcbdffc0U, 0xbcf76c38bd94519dU,
  0xbd84e42a3cd0988cU, 0xbcb097e6bbc917ddU, 0xbd384b2b3d89fe6fU, 0x3d2c040dbd642934U,
  0x3d23ace4bdbf9895U, 0x3c674ae43c3f2f0eU, 0x3d039a77bcb97015U, 0x3d7117f23c2b6441U,
  0xbd4d82a23c5a980bU, 0xbdb6a1acbc5dabf7U, 0x3c9368283c811835U, 0x3d0d836b3cff1244U,
  0x3d2679eb3d5fb18eU, 0xbcfc72433c6c1b95U, 0xbc695e563ccd7c70U, 0xbe1acef53d2cc927U,
  0x3cc013123d51dcbdU, 0xbe0ee3bbbd9d672fU, 0x3c9f13783c8f356fU, 0x3c52576cbd32f1ccU,
  0xbd8be4e2bd9c15baU, 0x3d638cce3cde63e4U, 0xbd554c43bc00adbaU, 0xbd667a3ebc7c4d61U,
  0xbd57678fbd8887d3U, 0xbba094ba3d3296a6U, 0x3c47d72ebcb45501U, 0x3d12a585ba719ff9U,
  0x3cb7fd583d1528aeU, 0xbc3b2a4ebd002fceU, 0xbd5fa26e3c861d19U, 0x3c1e5ef1bb253ca1U,
  0x3c72092dbd1418a1U, 0xbd94b2303cc08dd3U, 0xbceb5d503db7f4d8U, 0xbe03caedbd82ff0fU,
  0x3dc323d83c004267U, 0x3ced05723d74689eU, 0xbd384bd7bd2de841U, 0x3c8d61b1bd9dc06cU,
  0x3d71cd9ebd581448U, 0xbd966e3a3cebab67U, 0xbd3bcbfabd26c053U, 0x3cdd1c5cbd9624e7U,
  0x3c4941d93d73e3beU, 0xbc5bc01cbc5b96adU, 0x3d177e303d6adf33U, 0xbdf88c033d045086U,
  0x3d756dc9bd3198aeU, 0xbd9ba22dbd59cb3aU, 0x3c5855343bd2733aU, 0xbcb220c6bd0472c4U,
  0xbd449b373d9585c9U, 0x3d8f3a013dbda5c9U, 0xbd9fd7f0bd382b97U, 0xbc6921563cda7492U,
  0xbc7812ab3d0c6862U, 0xbc4d62de3d316c2dU, 0xbab39df53bfae4caU, 0x3ccc3ea93d0e8804U,
  0xbd6483b23dcb24aeU, 0xbd01db97bcc7965dU, 0xbd072375bd923ff7U, 0xbbd6670f3d21be62U,
  0x3b785fb83d878bfbU, 0xbb19a0263d2f2a9bU, 0x3c4d1fc33b91170aU, 0xbd9a0b82bdc57fffU,
  0x3d282e533d84df65U, 0x3d0e82b2bb57737eU, 0xbd46f3db3d6fd7c7U, 0x3d8ee01bbd85462eU,
  0x3d4525913bc0e922U, 0xbd9aaf113bda1fbbU, 0xbd36a05abcd5ab1cU, 0xbcf62256bd90b954U,
  0x3bc7e7da3c539c0eU, 0xba14d0723cf6e8aaU, 0x3d83eb0fbbbf639fU, 0xbdfb8d643c8321c4U,
  0x3cea5fddbbd7af4fU, 0xbdda8ca53c2ed801U, 0x3bb43e83bd2faceaU, 0x3cc2424c3d3bf59dU,
  0xbcf8734e3c39b6d9U, 0x3dae2d4e3c9b3fe1U, 0xbd2bd1133cce2cafU, 0xbd76ca4a3c11f0d5U,
  0xbbab829c3d30ac9bU, 0xbcc867723db4bfceU, 0x3d5fd8ec3d4f1bf2U, 0xbd3777c63d0fbff9U,
  0x3cd6fbe23d958275U, 0xbcdc4793bc313456U, 0xbcd88e873d3930ddU, 0x3d16f9abbd185ad6U,
  0x3d8fd3343c66c107U, 0xbd463e2d3cc18041U, 0x3c4aab703d0f3229U, 0xbd053d29bd2d5400U,
  0x3d833cef3cccddd9U, 0x3d1efd813cec754aU, 0xbcb22a663d0fc491U, 0x3bf6c10fbc4b5807U,
  0x3d94ef84bdb4277cU, 0xbd167b093d2b986cU, 0x3c35fdbebb3ebb58U, 0xbc2fbb303c4ca106U,
  0x3d041036bb82686bU, 0xbd1889c2bdc01c29U, 0xbd83e802be3155d9U, 0xbc733bccbdc253daU,
  0xbaef81703ccad6c2U, 0xbccc7bbb3d2d48ddU, 0x3db399b538fcfb16U, 0xbdcb137e3c8cb805U,
  0x3d1f86fbbe1d3af8U, 0xbd07c9aabe06e337U, 0xbe0a34d83dafd7a4U, 0x3d03ce333d126bcfU,
  0x3c6f2cb6bd318ca7U, 0xbc9625af3d272bedU, 0x3d5d9754be50e490U, 0xbccc30a23d96d616U,
  0xbd55f0ac3c250418U, 0xbb8970f3bdd51f51U, 0xbe55b94bbe15a777U, 0x3dc652b93d0a1463U,
  0x3d698bf8bde216a0U, 0xbd8e1decbdb94e93U, 0xbd1184d8bd39507fU, 0x3d670412bd08265dU,
  0x3c8ffb1dbd82dd10U, 0xbc165d30bb4f74beU, 0xbcb7f8853d7215c7U, 0xbd8b4537bd09a9e2U,
  0xbd88b8c13cf69e06U, 0xbd832b3dbe0ea007U, 0x3dc75d3cbd4943a1U, 0xbc8100e63d6a087eU,
  0xbd67c6523c2b46c2U, 0xbd051273bd87f756U, 0xbd6e68e4be257f17U, 0x3d481be6bdaf113fU,
  0xbd55bc0cbd8213afU, 0xbd14d4353d0d9edfU, 0x3d494960bcf4330fU, 0xbd93d9c33d484553U,
  0xbcacc1a6be13ba17U, 0xbd945dc0bdb768beU, 0xbd8d4e1dbd9c4b62U, 0x3dc75fd73d78558bU,
  0x3a4109fcbd03ba05U, 0xbdafd58c3d0780c4U, 0x3c05f66abdcd4258U, 0xbb8c6fdb3d8d3fd0U,
  0x3d6fab3cbd39cb6cU, 0x3db2fe74bd4fd2eeU, 0xbde4fcabbddb24a9U, 0xbcc6054fbd83afb4U,
  0xbd14fffcbd5ab580U, 0xbdb53946bd96e031U, 0xbdc3e4c9bd97d4eaU, 0x3d0edebdbd1ea7e5U,
  0xbbf376b1bd31109bU, 0xbcced5d6bd568e17U, 0xbd68728fbc0dbe29U, 0xbe13f3dbbd55aa7dU,
  0xbdf386bb3b3683ddU, 0xbdd48423bdcca7bfU, 0x3d9ddb1d3dae0364U, 0xbceeb999bc4c756dU,
  0x3c584b67bdc3676dU, 0x3cd143afbcfcb412U, 0xbc8769fcbe15e0e8U, 0x3d2ca28abdb2c432U,
  0xbd54e985bc3942f6U, 0xbba2d4a2b995b3baU, 0xbcb73ba4bbbc2a0fU, 0xbdcfe0fdbd260e3cU,
  0x3d324c35bdbda687U, 0x3867fec8bc1fa5e1U, 0xbcd2d06abd9d8e79U, 0x3c8745ba3cab1e7aU,
  0xbc939e6cbd924065U, 0xbc47264f3d20b51aU, 0xbc027dfcbdcf26daU, 0xbd5af9f6bd22d27eU,
  0xbcce6debba6377d9U, 0x3d3d793cbd1450c7U, 0xbda8945ebd64483aU, 0xbd4a2c3dbda10875U,
  0x3c9e3926bdb9adadU, 0x3d197c9fbd5f355cU, 0xbdb6d7c03ba4dbf8U, 0x3da35f273d2771e2U,
  0x3b85b661bce90dcbU, 0xbda948f83be6583aU, 0x3d66c9d93d401d1dU, 0xbd8dbf0bbd5bec73U,
  0xbcfd80db3ceeb858U, 0xbd850805bd9e0a39U, 0xbc764dc73d8938d6U, 0xbc8873c13dbab6b2U,
  0x3da77faa3d93b0e7U, 0x3e1db87e3c70ef87U, 0x3c42aee63d25ec07U, 0x3e19faf53bb1f211U,
  0xbd32baa23d3927f0U, 0x3c6bc9523e2d2183U, 0xbc268cd33d7ee02bU, 0xbc3e314f3e0ab0e7U,
  0x3dbe66d63dedb410U, 0x3d93a2b9bca5d996U, 0x3bc8982cba5cc808U, 0xbd008ab63da45d24U,
  0x3df4c9a1bd8e7a86U, 0xbc1fc30ebc90eb81U, 0xbe1f48593da60b99U, 0xbd0d77683cbe3f6fU,
  0x3d43ddb73c10c927U, 0x3caec1f83d9e8b47U, 0x3dcdcbce3da3278bU, 0xbdaa4076bc3f58a5U,
  0x3dff8e833def2710U, 0x3cddff2fbd288477U, 0x3a2dc76ebc1c9276U, 0x3c88a502bd2a1c14U,
  0xbd9d3cf8bd674e40U, 0xbe0a25193d3b6f7dU, 0x3e2eed083e2275d1U, 0x3cb46b863b1d1d09U,
  0xbb0539bb3de693b0U, 0x3d32e792bbc1e18cU, 0xbcdea1f03d7db757U, 0x3d8f8a633e34e6c5U,
  0xbd4c2db83d6db29bU, 0x3dc42c6cbd27f358U, 0x3d7e4f3ebd5df75eU, 0xbca235b93da06e01U,
  0xbd8cfb5abdd37ab2U, 0xbd4045e13d998913U, 0xbb03794a3d5ed1c5U, 0xbcd1f502bd67d280U,
  0x3b96eb36bd090bd5U, 0x3d3ac38dbd0bd3dcU, 0xbdaa866abc88edeaU, 0xbdc404c93d629ea3U,
  0x3c9eee81bcfd31e3U, 0xbd59f2c83c4d029aU, 0xbce9e8e83d6d8884U, 0xbd0b8ffabc7876d8U,
  0xbd779214bd716ef4U, 0xbd14e3a53dcc3cdeU, 0xbca52c48bd62949fU, 0xbc9fd4b7bab9a28eU,
  0x3df1c3b3bd673ef0U, 0x3d400cffbdf9cca2U, 0xbc5ede07bc8dd3f8U, 0xbce754efbd1f5b8dU,
  0xbd0c8631bc907e71U, 0xbc4a219cbdc243faU, 0xbd4c24e93d42bdb1U, 0xbd962058bd937288U,
  0xbd1efa35bda00e4bU, 0xbd760947bc81c2e3U, 0xbc7b0228bd60250fU, 0xbbd9ebed3d419d26U,
  0xbd9ca95fbcef1b1eU, 0xbca3044ebc795aaeU, 0x3d592b34bdbab03cU, 0xbd2ae94a3df8c634U,
  0xbe0cc8dabd300ebaU, 0x3d01d9633d0a7447U, 0xbcca0022bd5cb7bfU, 0xbd5ae967bcb9183aU,
  0xbd9e4bdbbca7fa03U, 0x3c7d97babdf81958U, 0xbabc2204bd0b73abU, 0x3c101dbb3d81aa83U,
  0xbd9f7c55bb2e630bU, 0xbd388be9bcbad2d1U, 0xbcf43633bd0c3507U, 0xbdb5883ebd4fe3a4U,
  0x3dce3847be0c4130U, 0xbd43b7013bf30aafU, 0xbc8bd190bde18384U, 0x3d341d963bc88f72U,
  0x3c92b0dabc06f4c3U, 0xbc5a560f3d8bd0d0U, 0xbe01cbfcbdc5153aU, 0x3d6cbcc93da18beaU,
  0xbdff7c433d03e601U, 0x3b8078f0bdb8a413U, 0xbdc4f3b3bd850637U, 0xbe18cc2cb9074379U,
  0xbc09eca1bd82cde8U, 0xbd6e43723dafcff1U, 0x3d38ad1b3d9a91a8U, 0x3ce13088bcf578bdU,
  0xbd7824a03ce12e3dU, 0x3db969b93d24227eU, 0x3d3d7def3cd6addfU, 0x3d3f87d7bb7471abU,
  0x3db8c0a63dfd0ca5U, 0x3e05ddc23d8a187bU, 0x3c829054bd0555d6U, 0x3d501f3a3d9b4abeU,
  0x3dacf9a4bd177bd3U, 0xbb866d36bbe4d31eU, 0xbc32cf52bc4800beU, 0x3ce886493da03671U,
  0x3d0a68e3bc502ee1U, 0x3dcb75dabc9d91dcU, 0xbd3a61cd3d04146dU, 0x3cbe9e96bd1b7295U,
  0x3dabd1b23d47d0cfU, 0x3e0be1f3bc72d8edU, 0x3c9dd426bcb24b32U, 0xbd2f330bbdb2828dU,
  0x3c856bef3dc46fa6U, 0x3d02940fbcfef445U, 0x3b63e226bce40817U, 0x3d83e020bb20835eU,
  0xbd9bdb9e3d388b17U, 0xbdda5cf33e21d700U, 0x3de9bcaebcb6f5f6U, 0xbca4612a3d4ca38eU,
  0xbd5476803d64bd46U, 0xbcfd4f6dbd90fca9U, 0x3ddfa8e93dc7bceaU, 0x3c9514283dc9df82U,
  0x3d4fc7653cdc3cbeU, 0xbbba279b3cd4eb85U, 0xbcfef2203c97549bU, 0xbdbd75a73d1d2c9aU,
  0x3d4f5251bcc2883eU, 0xbe0f4f8bbbca5105U, 0xbcd6aec43cd1f60aU, 0x3cf812e53cc49be7U,
  0x3d1078da3d1a91a4U, 0x3d4d452c3c5ed41aU, 0x3d550bba3c13f414U, 0xbd381fc63c8c24e5U,
  0x3a98a8103c4f2737U, 0xbd0f3b413d1c337fU, 0x3d2d5bee3cb7293cU, 0x3c7d40aabbcfd16bU,
  0xbe1c044e3dab90ebU, 0x3aa763783d67f117U, 0xbdc7401fbd808f6cU, 0x3cc2ca953cd21d25U,
  0xbc18d2f6bc9107fbU, 0x3b0c7f0abdeb2d8fU, 0xbc280c433dae1284U, 0xbdbb4c4cbc680c6dU,
  0x3d20d77b3d9572b2U, 0x3dbef6c1bd984470U, 0x3d161e4a3d5a1c9cU, 0x3d8daa9dbd175a4dU,
  0xba49e64c3b2bc41aU, 0xbdaaacea3d221bc3U, 0xbd897489be0087a6U, 0xbdb6c2373cc437b8U,
  0xbda2b5cebdb9b85cU, 0xbdb7ecd73b1c04c1U, 0x3d5dfafebc51edcbU, 0xbce07fba3d6557cbU,
  0xbd65c3bdbd6b321eU, 0x3ba30915bdadeb98U, 0x3d28f4b8bd4d8024U, 0x3c97b8e43d2555c0U,
  0xbdd650a9bcafdc7fU, 0xb8d76930bdad3f01U, 0xbc90c667bb00b27aU, 0x3dd8fcc03da074e4U,
  0xbd9c9def3ca37348U, 0xbcbf4c58bd2484f7U, 0xba06b334bd5ff867U, 0xbdc8a550bc92c28dU,
  0x3d1ea338bdc53e61U, 0xbd32409fbcebf49aU, 0x3c86c397bc99bcfcU, 0x3d6a9cb73cfdc470U,
  0xbd94059fbc7a7b47U, 0xbd5be9fd3ddecbc5U, 0xbd704ed6be2ac248U, 0x3b666903bd8c7594U,
  0xbd86217abc91e5e0U, 0x3c8a5154bddfa941U, 0xbdb7e91dbb11e82eU, 0xbd1c711b3db0f659U,
  0x3c6cb23fbc185b6cU, 0xbd9023523d81518dU, 0x3d71d8cb3da7c465U, 0x3d2bf49abd280707U,
  0xbcab95d9bd437a6aU, 0xbd4161383da59957U, 0xbdd4c6f73d3f553eU, 0xbc004a5dbe3380e5U,
  0x3d6a40393dacd663U, 0x3c992603bd379c42U, 0xbda39927be05a785U, 0xbcc77846be0c4c48U,
  0xbd880456bd2910b4U, 0xbe0b87cd3d6fb22dU, 0x3d15e42abdf69fa8U, 0xbd74418c3d590a4aU,
  0xbcf52e3abb0bc8dfU, 0x3d9b6557bc4258f6U, 0xbdfb5822bd85fab6U, 0x3d7f3d63be0534d4U,
  0x3cd4ca3c3dffd328U, 0x3dd823a1be05570fU, 0xbcd66ca7bdb680bfU, 0xbdaaf24cbd72bdebU,
  0xbde1a22cbc00a84fU, 0xbe01c8febc622f14U, 0xbc67386a3d497492U, 0xbcc62939bcdd1439U,
  0x3cebdb1a3da14e99U, 0xbe436eff3e2c53f5U, 0x3bee8322bd893b60U, 0x3d5994da3ceeb800U,
  0xbe00fa0ebde41efeU, 0xbdc91f9ebe0f7bc0U, 0x3a364ae23dc7ba63U, 0xbd8dc3ecbe01a0deU,
  0x3c99681c3dabdc69U, 0xbd2be877bd92f02eU, 0xbda05ed33d2f3f62U, 0xbd3978f7bdb9d9e5U,
  0x3d6b3fbebca79773U, 0xbd74bf7bbdfa293fU, 0x3ba08de1bd3a4d43U, 0xbd520355be060e8fU,
  0xbd5ad4b6bd618909U, 0xbcf8d1ee3c551b3dU, 0xbde4c5c33cf339e1U, 0xbd603e51bd0cee9aU,
  0xbcade9ecbd5b1328U, 0xbd573da83d1e4dddU, 0xbc9bf38dbd339370U, 0xbd44a3c53ce4ff17U,
  0xbe3755ca3d75dc15U, 0xbd8e3289bcb14f0cU, 0xbdfc22c3bbac9072U, 0x3d2147823d0305adU,
  0xbe171cd4bdb0d964U, 0xbdffeb08bdca544aU, 0xbbcc26c93caab47cU, 0xbcd25465bdd8312cU,
  0xbbe6c430bb4ceacdU, 0x3da6e5adbdc90c1aU, 0xbd730cf0bdaff47dU, 0x3ca3c7f1bd94d0d5U,
  0xbd3b6997bdb28d9dU, 0xbd6eef8c3ca914ebU, 0xbda441f1bdcb7602U, 0xbe25b31fbde3ba39U,
  0xbd4bc780bc82fb9eU, 0xbdb2efbcbc9d9b17U, 0xbc8d6f69bbc85d6aU, 0xbd25ff033d008e09U,
  0xbd1ae719be18ede3U, 0xbceb5ee1bd95b21dU, 0x3cb46fb6bcc14935U, 0xbcda40633d22d8abU,
  0xbda24c73bc3805e3U, 0xbcd583e9bd37ce91U, 0xbd9ae75dbd4c95a8U, 0x3d0020663d180a88U,
  0xbd7003143b8673b1U, 0xbe1bd49fbcc6b605U, 0xbd34e703bd6eba36U, 0xbd8fc8a93d5f648bU,
  0x3cf047e7bda310b5U, 0xbd6b1e69bc88b8d5U, 0x3cb0d4b53d57051cU, 0x3daceb793d467717U,
  0xbe2e7528bdd7a04eU, 0xbd84ac213d19da0fU, 0xbd86a124be00334eU, 0x3d435b4abd496586U,
  0xbd8f4445bde745c7U, 0xbba82370bdf1f355U, 0xbdf52d5ebd946e8eU, 0xbd85c11e3d75e14eU,
  0x3d8dfc8a3c068221U, 0xbd93e86e3d573cceU, 0xbd177cfd3ca20bbbU, 0xbc9ce259bbfeb762U,
  0x3dd0db313d0b968fU, 0xbd55c13c3c0e142fU, 0xbc8bad3d3d2cbbc7U, 0xbdbe2d643dac453aU,
  0x3c95df42bc6d4e44U, 0xbe7e7ad5be0b83b5U, 0xbd55ad153d92329eU, 0xbcc34cb6bdbc3fcbU,
  0xbd9a4e643dddb048U, 0x3dab12953e27514cU, 0xbda1722b3c0c1affU, 0xbe0557313a422da2U,
  0xbdda968b3c8e3a3dU, 0xbd2a9cb5bd2ba9e3U, 0x3cb2c90a3d983102U, 0x3bc7d00cbdf9047bU,
  0x3a3974cfbcc01e31U, 0xbd9590aa3b9d0fb3U, 0x3c7358bb3de494d1U, 0xbdba841ebc83af8eU,
  0x3c29d5b03ce93dcfU, 0xbd2bd18c3c81f518U, 0x3e42d2713c88bbbaU, 0xbe171b373d150ae6U,
  0xbcfdaddebba76353U, 0xbc800b743d18ac4eU, 0xbd386814bcb17e30U, 0x3dab4ad43ac71819U,
  0x3d98486bbd628a2dU, 0xbd33eeba3cdab8caU, 0xbda30f5f3c141a21U, 0xbc645402bdde1cb2U,
  0x3d469b2dbc047f89U, 0x3c47b138bd9a41aaU, 0xbd944af7bc372958U, 0x3cce0c16bd9a7312U,
  0xbd8d4b313dadacb8U, 0xbdcba4673d7ccda2U, 0xbd3b9bcdbe05c3b5U, 0xbdcd89643cae554bU,
  0x3dcc1122bd2fd597U, 0xbcc74541bd5fd534U, 0x3a090a9a3d226065U, 0xbd48e2d2bdc67d5cU,
  0x3da1a88fbc75b061U, 0xbbbde5013d318dcfU, 0xbd575a423c92f589U, 0xbd37871e3cd9086aU,
  0xbdb1449fbcc1b75dU, 0x3d72a643bcbd7fc4U, 0xbd3bee773de92e50U, 0x3c95f62b39b838bcU,
  0xbb04f802bdba73b9U, 0xbccc6a05bc8d9027U, 0x3ca945f0bca2cd6bU, 0xbd0df96d3bdd215bU,
  0x3dc3fea4be3fee2bU, 0xbd7f81e1bce5950dU, 0x3d53e4f13dea6b44U, 0xbd7eb29cbda0f838U,
  0xbd9d2fc43d89b746U, 0x3c51111ebcdbf74dU, 0xbdf9aa093dfad979U, 0xbd51d81d3d5621e9U,
  0xbd47d094be202b29U, 0x3dc2c4e3be02e500U, 0xbb9d1707bdda87b3U, 0x3d97da9ebded75d4U,
  0xbe1c4af0be1b9055U, 0x3e427fb13df74245U, 0x3d734b013c018d3eU, 0xbe02a0af3dc00925U,
  0x3c80cc3dbe2366f0U, 0xbd97e6c7be02ef16U, 0xbde475aa3e02678bU, 0x3e0e41ffbc347a62U,
  0x3d9979f0be084c7cU, 0xbe25f60dbe00bb97U, 0x3b3d3909bd8f4a07U, 0xbe05ba1c3e16c387U,
  0x3dd851a0bdc78bfaU, 0xbd711b1abd3b7134U, 0xbd4c81813c989161U, 0x3e064a903da7836fU,
  0x3bf7e6cebd747758U, 0xbcdf132fbc9afc76U, 0xbe046846bd9b8c22U, 0x3e1f8735bc81f07eU,
  0xbd2a243bbe39f8f9U, 0x3df11502bd3bf3b3U, 0x3da9e363bd948f85U, 0xbe219d18bd7e5f72U,
  0xbd2353053e1b4376U, 0x3e24ecc83d093cefU, 0xbcd3bf3fbbf301c4U, 0x3d9c478b3db5719bU,
  0x3d7b2c1ebdbf77edU, 0xbc199cbdbdd92d28U, 0x3c5dff7dbdd99f3aU, 0xbd1b5ef23af29c5fU,
  0xbe06cba8bd27fefbU, 0xbd0523473ded0a41U, 0x3d8e4187bc0ac72aU, 0xbe1ef63fbb38992fU,
  0xbce8c433bdfa4369U, 0x3d5dbb69bde3fcc4U, 0xbd7ec4e63d710b65U, 0x3cc4305cbd59f1d9U,
  0x3de9b084bc9d20adU, 0xbd882b99bc4c85ceU, 0x3d8ae777bdb9f8dbU, 0xbd74d8c03ce51f3cU,
  0x3d4c5cbebde9dc37U, 0xbd86b3dfbbab029eU, 0xbe1bf0a0bd1e4e66U, 0x3dee75543d963cafU,
  0x3e08b2bdbdc0bf90U, 0xbc9b8335bd5ede00U, 0xbd45f166bd4a4734U, 0x3c21565e3d2196c5U,
  0xbd83bff1bc741fa5U, 0x3e053fa1bd24c47aU, 0x3d667e553b7990aeU, 0xbe167a13bd715144U,
  0x3d5460103db83515U, 0x3dc9a68c3d00b951U, 0x3e092728bd266400U, 0x3cc92d603df19df2U,
  0x3c3a706ebd850947U, 0x3cd4fd8abb29dd83U, 0xbd253551bd148b06U, 0x3dafcb54bd80c1c3U,
  0xbd97d683bd4db226U, 0x3d8eeffa3df6cdf4U, 0xbd1046afbdea7037U, 0xbd4d1d223d36d4eeU,
  0xbc5e95cb3c1782b3U, 0xbd9b1401bdd2dc87U, 0xbc8b82473c94a100U, 0xbd2c55b1bd7c905cU,
  0xbc9321d43d31586dU, 0x3d7378b53cc0c8bfU, 0xbcde15c1bd8323f7U, 0xbcdda5d63b5eef58U,
  0x3bd0e1893bb806bcU, 0xbd26e4d73c916c20U, 0xbd2fca9dbbda3e03U, 0xbab27f4e3d50973dU,
  0x3c166accbc841a51U, 0xbc6ee0c73ce761d7U, 0xbdee4f18bc24e961U, 0x3d1d65cdbb19c5cfU,
  0xbc4ab70c3d0caac6U, 0x3db832633d1a0879U, 0x3d5dfb8a3af3bbdeU, 0xbda12a683cfeeaacU,
  0xbd1677943c556ab1U, 0x3d3ba9f0bd60a01cU, 0x3ced5f5a3d91c6b4U, 0x3d98bb6e3d88ce34U,
  0xbe184b143d27eaf6U, 0xbd8044cf3cc3ff42U, 0x3dbf07723cc65743U, 0xbcdcac403cce7c3cU,
  0xbc907f6fbcbbd90fU, 0x3da6d0d2be005ecaU, 0xbd92ddae3a967197U, 0x3d6bcd25bccc2efbU,
  0xbc12147cbc220ffcU, 0xbc9056b43d86c342U, 0xbcbb0ed5bdb7431bU, 0x3ccb886dbd189e91U,
  0xbc79ced0bcdff57dU, 0x3c1e8ff2bd399644U, 0xbcaf13823d2c3dcbU, 0xbc684e08bd9509afU,
  0xbaef94d13d47e2c6U, 0x3cdd7cb5bd97d33cU, 0x3d33c33fbdb50dd8U, 0xbcd71dc1bd89f41eU,
  0x3d41112a3d54a580U, 0xbd1fa9b33d9d51c0U, 0xbd25211abc9e76afU, 0xbc6796d4bdc108edU,
  0xbd4933d93de12654U, 0xbd14fa253c90292fU, 0xbcfe77d2be0b2504U, 0x3e27e5c33c80747aU,
  0x3d62f85ebdd8a004U, 0xbbe332553d15b59fU, 0x3d7088253d049544U, 0xbc836716bd60715aU,
  0xbe99c9a7bdfd6d84U, 0x3ce71a8fbcc819e8U, 0xbd3c3fb4be09661eU, 0x3d83a9d5be05502fU,
  0x3c135147bcb7b47cU, 0x3e52ffd23d2c3d0dU, 0xbd640105be03a6d1U, 0x3d0093d5bd277bccU,
  0x3db5c3c8be3062a8U, 0xbe2c84b4bddda8baU, 0xbd284e3fbdf3dfa7U, 0xbdbb85a8bc8bee0cU,
  0x3bc2b5a33ca9d668U, 0x3c43d36d3bc005d2U, 0xbdd01b33bda4e514U, 0x3cc5fa20bcc83947U,
  0x3c089ca8bd8d0c9aU, 0xbc2ca545bdb1b937U, 0xbd6486a3be67d69dU, 0xbd4af1b0bdb7f449U,
  0x3dac812cbd2b9b84U, 0x3ceecf06bd2cbb5fU, 0xbe2f1e7abd1d98a0U, 0x3e10ec3abca94bf0U,
  0xbda5141bb86ded30U, 0xbdd801733c82795cU, 0x3d07a655bdff847fU, 0xbc3602f7bdbc898aU,
  0xbe23e9f9bc8f669eU, 0x3d38c774be34db22U, 0x3d2d5298bd287866U, 0xbe0b21be3c7b5111U,
  0xbd24c6883ae88582U, 0xbe14eb773e36b601U, 0xbd8a7c9f3e086de3U, 0xbc722de73c921cd8U,
  0x3ccec8c13d95ee56U, 0xbc5947dcbe144489U, 0xbdf1f04dbdd46aa0U, 0x3e2145c1be2d7136U,
  0xbc3230063db79ed9U, 0xbdcae57f3dd428aaU, 0x3d4b3c3dbde6b59dU, 0xbda5293c3d340f72U,
  0xbe24a6913d9f2285U, 0x3d8e7a873c3bc0a3U, 0x3b3aa1fa3df15feeU, 0x3e0fefe7bdd63b00U,
  0xbd23410d3de98f1dU, 0x3cd473e43c10d803U, 0x3d2d44af3d574ca1U, 0xbd202fcabdf489b6U,
  0xbe0c4ed53cb253f0U, 0xbd442b51bd2353ceU, 0x3e007b633e1a6c12U, 0xbd83442dbd8e085dU,
  0x3de64bae3e006c38U, 0xbd8fdb503d8a19b5U, 0xbdd843c5bdf9a3e0U, 0x3e304b5c3cec92beU,
  0xbd8a65d9bd7a6859U, 0x3d1b2c7dbd6ff8c6U, 0xbc186a67bad5c13eU, 0xbde3485abe51b908U,
  0xbcf05fc8bc66acf3U, 0x3a35b8843c2db600U, 0x3caeae703e0eb3b3U, 0xbc710f5fbd0fbbbcU,
  0x3cc60d973da0c0caU, 0xbe04132ebe16ecbdU, 0xbdbbb0fc3d637529U, 0x3d85535bbddbebceU,
  0xbc8c74183dd7aaf7U, 0x3d317eac3dab47a4U, 0xbd2c2880bc755c0cU, 0xbda16f11bd701b0cU,
  0xbe1449fc3baf1a32U, 0x3d9ab145bcbe3316U, 0xbccb5cc53dde5547U, 0x3cbe6337be09345cU,
  0xbe255a253cad7df3U, 0xbcc5f84d3d62a437U, 0x3d14a75d3db00eb6U, 0xbdea42aabdc59caaU,
  0xbd85dc083cdbe8d7U, 0xbd06aaa6bdadf9feU, 0x3ded79ed3d620835U, 0xbe2caf70bda519d8U,
  0x3c8f96d6bd93cf05U, 0xbd1b09013c4f4363U, 0xbd114d83bd7544abU, 0x3dc39769bd58d7b5U,
  0x3d8a5795be380555U, 0x3cf9883d3c961b45U, 0xbe2b6ff6bcfed217U, 0x3d1cdd0ebdb79befU,
  0x3dbdaac03d6db209U, 0xbda490e93dbc6bc3U, 0xbde7e8ba3e0c41d9U, 0xbdad6ab5bd1bd951U,
  0x3e05774e3e1f9ca4U, 0xbe736ee5bdd01e8eU, 0xbe78831dbc4fc16bU, 0xbd3fccc1bdb604dbU,
  0xbdeb41593df98890U, 0x3d2643143e1c9bedU, 0xbd25cce43db243a3U, 0xbe8e81eb3cad41b8U,
  0xbdd3321ebc3c8db9U, 0x3db642283e2bef24U, 0xbb24a1b53e2fe951U, 0x3cff6121bdf1b645U,
  0xbe7412743e464c2fU, 0x3d144d98bbb86d5dU, 0x3d7a96223e3221f9U, 0xbe3d372abe3ebe30U,
  0xbe5809e6bc750e53U, 0xbcd1dda0be02f111U, 0x3e0ba8c43e252418U, 0xbe2e2074bd3f9c4dU,
  0x3e211eaabbac9b20U, 0xbde2216d3ceb9826U, 0xbca6d79a3cf944fbU, 0x3df68163bc407f8dU,
  0xbc911c27bd94dfe0U, 0xbe13777a3c3807aaU, 0xbe7aaac63b043133U, 0xbd2ed11abda75cbaU,
  0x3cff6119bd77f940U, 0x3d8639b7bdbd4c51U, 0x3c8127dcbbcce044U, 0x3d980b0d3c19bc62U,
  0x3d427b74bd94c338U, 0x3d88e85e3d33c05fU, 0x3c014cafbd9e62bdU, 0xbe13d49e3ddf49ccU,
  0x3d5f8c2abd5d1004U, 0x3ce0bfa8bd6847b3U, 0xbc40b1e33c98a409U, 0x3c41bcecbd38defcU,
  0x3d9fd34d3c969dbdU, 0x3c2b2d46bd0c3b5dU, 0xba90ad98bc244556U, 0xbce17bda3c82345cU,
  0x3c9a859ebca411baU, 0x3d240d7e3d5af11dU, 0xbd96c0f83d5008ccU, 0x394030913cf5e3b3U,
  0x3e00d829bd0d63baU, 0x3d3bec6bbda713e8U, 0xbdcd4b8cbcfd6b54U, 0x3d891adb3d43a81aU,
  0xbcde1589bdfb9e6dU, 0x3d34144fbc714458U, 0x3d9240453dc68da0U, 0xbd501226bd532a33U,
  0xbd7d7eb93ddd057fU, 0x3c807ef4bcc889dfU, 0x3d4fd7a03b2d7b34U, 0xbc3e63183e01aa1aU,
  0xbde20007bcd5bf87U, 0x3db7061fbdb5ee84U, 0xbce177673be0da5eU, 0xbceef90abbf7f9c8U,
  0xbdfdae08bdd74e20U, 0x3d4f74db3d3226acU, 0xbc3cb767be059135U, 0x3d4555953cf5c626U,
  0x3da62005bd0a1d5fU, 0xbcd54b86bd7f9d40U, 0x3dc1097f3c87bf57U, 0x3c5c5befbc339a41U,
  0x3e40b489bdb59be2U, 0xb7a40b89bdbc226aU, 0xbc9f72fbba9fc890U, 0xbd85bf0cbd64c9caU,
  0xbd8528c5be47febaU, 0xbde2fbcbbd8a8f51U, 0xbd0cb1c4be1fc950U, 0x3d080352bd159040U,
  0x3c19d70dbd9504d9U, 0xbd07ed63bb2e74d7U, 0xbdc4634bbdd0450dU, 0x3b9e04d53c94ec40U,
  0xbe0995bdbc77b796U, 0x3c4a4fe8bd76e8f9U, 0x3dab26a13d57c464U, 0xbd9535323d00e0c0U,
  0xbc17e835ba99497fU, 0xbc923e0bbdb7de2dU, 0xbd3d344ebdbe6a96U, 0xbd94cd203dcfa2a0U,
  0x3dadf5083cde48c4U, 0xbd14dc9e3c2cf94fU, 0x3d19ddc13cbc8407U, 0xbd02a8863d9813c6U,
  0xbde5ff6bbcba8395U, 0xbe057b6ebde61d44U, 0x3c4675a83c2189f8U, 0xbc5547e0bd83ce0bU,
  0xbdd9b28a3dbdce11U, 0x3d3b83dc3d96abe1U, 0xbd2260583dcbb7d4U, 0x3d3f537c3c303021U,
  0xbc1ee05dbd8294bdU, 0xbda90d12bd6c5769U, 0x3d1f36003dd2d164U, 0xbcaf90b63d416a89U,
  0xbd0b6c4ebc51ed04U, 0xbd8c40f7bd11df1dU, 0xbb945fb33cc2bd10U, 0x3b59f75b3d8e820fU,
  0xbe053f013cecec24U, 0xbd9c3ab2bcf88b99U, 0x3dbf0c84bc43e085U, 0xbcb5a209bc6dd726U,
  0x3d6dfb03bdb16209U, 0x3d2d4adebe259c4dU, 0xbd3e41f4bd9c57deU, 0x3ae3cbc6bab52404U,
  0x3c163e663b801829U, 0xbd57abae3dfd9e9aU, 0xbcb80fbfbce6116dU, 0x3c781abdbdd985c6U,
  0x3d4122db3cac367aU, 0xbd21f934bb648fbfU, 0x3941d4cdbcebafa8U, 0xbccf7946bd7c9cdaU,
  0x3ce0c654bcea6881U, 0x3d81a90e3d41b478U, 0x3d89f969be0a7379U, 0x3dba49d13c8147f9U,
  0xbd2a57d4bd70cdaaU, 0xbd42f626bda5a8d6U, 0x3e205ae2bd340547U, 0x3db14e793cc5dfbbU,
  0x3cced8b63cee8cd7U, 0x3cddbdb8bd0fc829U, 0x3cc88025bd500a1bU, 0x3bb48ff73c549dd5U,
  0x3db176cfbc423186U, 0x3d21702cbbad5400U, 0xbc2aa33d3db4b34fU, 0x3dce576b3d8f7e76U,
  0xbd1f3b933d7803adU, 0x3d8e31573d34db16U, 0xbd83d691bd211b79U, 0x3d61cb05bcaabdc3U,
  0xbdb6b5d23d24d0ddU, 0x3d8338c13d9eb3d5U, 0xbda21131bdbe10fdU, 0x3c9b01583d0afc8cU,
  0xbd0de5da3d93925fU, 0x3cf3d752bda81f00U, 0x3d938da23d8ce51aU, 0xbcb4435b3d91971eU,
  0x3c9ca5f03d0860c1U, 0x3d33bb2c3d45aca2U, 0xbd8156a5bd0f1f95U, 0x3cf5ee9d3cf02b2fU,
  0xbd8d39d9bd3d5d90U, 0xbd6784f5bc4fa04aU, 0xbd029c4bbbc6894cU, 0x3dc69c7abd7e1071U,
  0xbcba384b3c650effU, 0xbc80f11ebc686fcaU, 0x3dccc5703d8d303cU, 0xbd1fe5c43d2558d8U,
  0x3c5fc46fbbabd26eU, 0xb9b1b05abd19f14cU, 0x3d0c10013cce93e2U, 0xbc843467bd263c4eU,
  0xbd55fa98bd8c6edbU, 0xbd7eb7de3c1de8d5U, 0x3d5d9f78bc8ed3c1U, 0xbd9a6c09bd078df2U,
  0x3d34a66abd1357e4U, 0xbd871547bbda1037U, 0x3d1b5879bd74b049U, 0xbd0c0d91bd81d60bU,
  0xbc6802073d173228U, 0xbb702661bd10ce48U, 0x3b4dc3113cbcef96U, 0x3cb7b4e63d9c97b8U,
  0xbc5ace35bdea12b9U, 0x3d940754bcd8e1edU, 0xbd64c59cbe059631U, 0xbda05dc13c259089U,
  0xbbc0798abdeb626bU, 0xbe19f2ebbe0e0835U, 0x3cfc7478be29275cU, 0xbd8ad59abd1a7373U,
  0xbe5eaefabe56cef4U, 0x3ca2c133bca7c36cU, 0x3d5afae9bd5d661bU, 0xbe03e426bcd6c027U,
  0xbe031e43be197bfaU, 0xbd8700e9bd9e1fc3U, 0xbdef897f3d01c973U, 0x3d5d124f3d9151f1U,
  0xbdf7d79dbe3dc37cU, 0xbe3631e4be1b4d6fU, 0x3c2a2b36be0bd384U, 0xbe6f12bb3daddad0U,
  0x3c889c96be4baa28U, 0xbdffe772be075670U, 0xbe074a9abdd1682dU, 0x3ce13ab33d43460fU,
  0x3c3bb62ebd849445U, 0xbdb71ad13d1cf785U, 0xbe11333dbe835e5dU, 0x3d5122d4bd5317fdU,
  0xbe0c8adfbce04dadU, 0x3d06e092be5601d5U, 0xbd651f23bdaa9289U, 0xbe6be3d9bd4e31d9U,
  0xbdb61942b88854ddU, 0xbcd09c8bbd0003ebU, 0x3d991801bcf880c0U, 0x3ca336ecbd80bf9eU,
  0xbe1797d63cd16f3aU, 0xbc5c524c3d058374U, 0xbd0f42003d7178e8U, 0x3cbb3f60bdf2fa2bU,
  0xbd4bbb973d9e6478U, 0x3d31be0bbd17d0d6U, 0xbdb17dd7bdf4617fU, 0x3d19884fbda031d3U,
  0xbd615b65bca502eeU, 0xbdba9b023d19218fU, 0x3e0f688ebd9abbcaU, 0xbd5fb13b3d4c03c7U,
  0xbdf89870bc170025U, 0x39e85625bd98029fU, 0xbcd993413cac8c8aU, 0x3df43aecbbb03219U,
  0xbbeecc8a3d98b816U, 0x3d7cd1f2bbfc8b5cU, 0x3d732320bd83459aU, 0xbdb7f8f8be05db68U,
